#include "magic_wand_model_data.h"

// We need to keep the data array aligned on some architectures.
#ifdef __has_attribute
#define HAVE_ATTRIBUTE(x) __has_attribute(x)
#else
#define HAVE_ATTRIBUTE(x) 0
#endif
#if HAVE_ATTRIBUTE(aligned) || (defined(__GNUC__) && !defined(__clang__))
#define DATA_ALIGN_ATTRIBUTE __attribute__((aligned(4)))
#else
#define DATA_ALIGN_ATTRIBUTE
#endif

const unsigned char g_magic_wand_model_data[] DATA_ALIGN_ATTRIBUTE = {
  0x1c, 0x00, 0x00, 0x00, 0x54, 0x46, 0x4c, 0x33, 0x14, 0x00, 0x20, 0x00,
  0x04, 0x00, 0x08, 0x00, 0x0c, 0x00, 0x10, 0x00, 0x14, 0x00, 0x00, 0x00,
  0x18, 0x00, 0x1c, 0x00, 0x14, 0x00, 0x00, 0x00, 0x03, 0x00, 0x00, 0x00,
  0x18, 0x00, 0x00, 0x00, 0x2c, 0x00, 0x00, 0x00, 0xd8, 0x00, 0x00, 0x00,
  0x2c, 0x00, 0x00, 0x00, 0x80, 0x00, 0x00, 0x00, 0x78, 0x00, 0x00, 0x00,
  0x05, 0x00, 0x00, 0x00, 0x28, 0x07, 0x00, 0x00, 0x44, 0x06, 0x00, 0x00,
  0xbc, 0x03, 0x00, 0x00, 0xf8, 0x02, 0x00, 0x00, 0xac, 0x01, 0x00, 0x00,
  0x01, 0x00, 0x00, 0x00, 0xd0, 0x00, 0x00, 0x00, 0x14, 0x00, 0x00, 0x00,
  0x98, 0x32, 0x00, 0x00, 0x94, 0x32, 0x00, 0x00, 0x8c, 0x31, 0x00, 0x00,
  0xd8, 0x30, 0x00, 0x00, 0x30, 0x30, 0x00, 0x00, 0xbc, 0x2f, 0x00, 0x00,
  0x50, 0x2f, 0x00, 0x00, 0x00, 0x13, 0x00, 0x00, 0xec, 0x11, 0x00, 0x00,
  0x10, 0x10, 0x00, 0x00, 0xb4, 0x07, 0x00, 0x00, 0x6c, 0x32, 0x00, 0x00,
  0x68, 0x32, 0x00, 0x00, 0x64, 0x32, 0x00, 0x00, 0x60, 0x32, 0x00, 0x00,
  0x5c, 0x32, 0x00, 0x00, 0x58, 0x32, 0x00, 0x00, 0x54, 0x32, 0x00, 0x00,
  0x50, 0x32, 0x00, 0x00, 0x3c, 0x00, 0x00, 0x00, 0x00, 0x00, 0x00, 0x00,
  0x01, 0x00, 0x00, 0x00, 0x0c, 0x00, 0x00, 0x00, 0x08, 0x00, 0x0c, 0x00,
  0x04, 0x00, 0x08, 0x00, 0x08, 0x00, 0x00, 0x00, 0x08, 0x00, 0x00, 0x00,
  0x13, 0x00, 0x00, 0x00, 0x13, 0x00, 0x00, 0x00, 0x6d, 0x69, 0x6e, 0x5f,
  0x72, 0x75, 0x6e, 0x74, 0x69, 0x6d, 0x65, 0x5f, 0x76, 0x65, 0x72, 0x73,
  0x69, 0x6f, 0x6e, 0x00, 0xfa, 0xce, 0xff, 0xff, 0x04, 0x00, 0x00, 0x00,
  0x10, 0x00, 0x00, 0x00, 0x31, 0x2e, 0x35, 0x2e, 0x30, 0x00, 0x00, 0x00,
  0x00, 0x00, 0x00, 0x00, 0x00, 0x00, 0x00, 0x00, 0x0f, 0x00, 0x00, 0x00,
  0x4d, 0x4c, 0x49, 0x52, 0x20, 0x43, 0x6f, 0x6e, 0x76, 0x65, 0x72, 0x74,
  0x65, 0x64, 0x2e, 0x00, 0x00, 0x00, 0x0e, 0x00, 0x18, 0x00, 0x04, 0x00,
  0x08, 0x00, 0x0c, 0x00, 0x10, 0x00, 0x14, 0x00, 0x0e, 0x00, 0x00, 0x00,
  0x14, 0x00, 0x00, 0x00, 0x5c, 0x00, 0x00, 0x00, 0x60, 0x00, 0x00, 0x00,
  0x64, 0x00, 0x00, 0x00, 0x84, 0x00, 0x00, 0x00, 0x12, 0x00, 0x00, 0x00,
  0x58, 0x31, 0x00, 0x00, 0xe8, 0x30, 0x00, 0x00, 0x44, 0x30, 0x00, 0x00,
  0x9c, 0x2f, 0x00, 0x00, 0xf4, 0x2e, 0x00, 0x00, 0x94, 0x2e, 0x00, 0x00,
  0x2c, 0x2e, 0x00, 0x00, 0xd8, 0x11, 0x00, 0x00, 0xbc, 0x10, 0x00, 0x00,
  0xe0, 0x0e, 0x00, 0x00, 0x0c, 0x06, 0x00, 0x00, 0x28, 0x05, 0x00, 0x00,
  0xe8, 0x03, 0x00, 0x00, 0x3c, 0x03, 0x00, 0x00, 0x98, 0x02, 0x00, 0x00,
  0xd4, 0x01, 0x00, 0x00, 0x10, 0x01, 0x00, 0x00, 0x84, 0x00, 0x00, 0x00,
  0x01, 0x00, 0x00, 0x00, 0x00, 0x00, 0x00, 0x00, 0x01, 0x00, 0x00, 0x00,
  0x11, 0x00, 0x00, 0x00, 0x08, 0x00, 0x00, 0x00, 0x74, 0x05, 0x00, 0x00,
  0x94, 0x04, 0x00, 0x00, 0x78, 0x03, 0x00, 0x00, 0xbc, 0x02, 0x00, 0x00,
  0x30, 0x02, 0x00, 0x00, 0x50, 0x01, 0x00, 0x00, 0xa8, 0x00, 0x00, 0x00,
  0x10, 0x00, 0x00, 0x00, 0x04, 0x00, 0x00, 0x00, 0x6d, 0x61, 0x69, 0x6e,
  0x00, 0x00, 0x00, 0x00, 0x7a, 0xff, 0xff, 0xff, 0x00, 0x00, 0x00, 0x09,
  0x04, 0x00, 0x00, 0x00, 0x1c, 0x00, 0x00, 0x00, 0x10, 0x00, 0x00, 0x00,
  0x04, 0x00, 0x00, 0x00, 0xf6, 0xcf, 0xff, 0xff, 0x00, 0x00, 0x80, 0x3f,
  0x01, 0x00, 0x00, 0x00, 0x11, 0x00, 0x00, 0x00, 0x01, 0x00, 0x00, 0x00,
  0x10, 0x00, 0x00, 0x00, 0xa0, 0xfa, 0xff, 0xff, 0x19, 0x00, 0x00, 0x00,
  0x00, 0x00, 0x00, 0x19, 0x01, 0x00, 0x00, 0x00, 0x84, 0xcf, 0xff, 0xff,
  0x14, 0x00, 0x00, 0x00, 0x12, 0x00, 0x00, 0x00, 0x18, 0x00, 0x00, 0x00,
  0x30, 0x00, 0x00, 0x00, 0x20, 0x00, 0x00, 0x00, 0x02, 0x00, 0x00, 0x00,
  0x01, 0x00, 0x00, 0x00, 0x03, 0x00, 0x00, 0x00, 0x08, 0x00, 0x00, 0x00,
  0x49, 0x64, 0x65, 0x6e, 0x74, 0x69, 0x74, 0x79, 0x00, 0x00, 0x00, 0x00,
  0x02, 0x00, 0x00, 0x00, 0xff, 0xff, 0xff, 0xff, 0x03, 0x00, 0x00, 0x00,
  0x68, 0xd0, 0xff, 0xff, 0x00, 0x00, 0x0e, 0x00, 0x18, 0x00, 0x08, 0x00,
  0x0c, 0x00, 0x10, 0x00, 0x07, 0x00, 0x14, 0x00, 0x0e, 0x00, 0x00, 0x00,
  0x00, 0x00, 0x00, 0x08, 0x03, 0x00, 0x00, 0x00, 0x18, 0x00, 0x00, 0x00,
  0x0c, 0x00, 0x00, 0x00, 0x04, 0x00, 0x00, 0x00, 0x84, 0xcf, 0xff, 0xff,
  0x01, 0x00, 0x00, 0x00, 0x10, 0x00, 0x00, 0x00, 0x03, 0x00, 0x00, 0x00,
  0x0f, 0x00, 0x00, 0x00, 0x07, 0x00, 0x00, 0x00, 0x04, 0x00, 0x00, 0x00,
  0x0c, 0xd0, 0xff, 0xff, 0x14, 0x00, 0x00, 0x00, 0x11, 0x00, 0x00, 0x00,
  0x18, 0x00, 0x00, 0x00, 0x5c, 0x00, 0x00, 0x00, 0x4c, 0x00, 0x00, 0x00,
  0x02, 0x00, 0x00, 0x00, 0x01, 0x00, 0x00, 0x00, 0x03, 0x00, 0x00, 0x00,
  0x34, 0x00, 0x00, 0x00, 0x73, 0x65, 0x71, 0x75, 0x65, 0x6e, 0x74, 0x69,
  0x61, 0x6c, 0x2f, 0x64, 0x65, 0x6e, 0x73, 0x65, 0x5f, 0x31, 0x2f, 0x4d,
  0x61, 0x74, 0x4d, 0x75, 0x6c, 0x3b, 0x73, 0x65, 0x71, 0x75, 0x65, 0x6e,
  0x74, 0x69, 0x61, 0x6c, 0x2f, 0x64, 0x65, 0x6e, 0x73, 0x65, 0x5f, 0x31,
  0x2f, 0x42, 0x69, 0x61, 0x73, 0x41, 0x64, 0x64, 0x00, 0x00, 0x00, 0x00,
  0x02, 0x00, 0x00, 0x00, 0xff, 0xff, 0xff, 0xff, 0x03, 0x00, 0x00, 0x00,
  0x0c, 0xd0, 0xff, 0xff, 0xda, 0xfc, 0xff, 0xff, 0x00, 0x00, 0x00, 0x08,
  0x03, 0x00, 0x00, 0x00, 0x24, 0x00, 0x00, 0x00, 0x18, 0x00, 0x00, 0x00,
  0x0c, 0x00, 0x00, 0x00, 0x00, 0x00, 0x06, 0x00, 0x08, 0x00, 0x07, 0x00,
  0x06, 0x00, 0x00, 0x00, 0x00, 0x00, 0x00, 0x01, 0x01, 0x00, 0x00, 0x00,
  0x0f, 0x00, 0x00, 0x00, 0x03, 0x00, 0x00, 0x00, 0x0e, 0x00, 0x00, 0x00,
  0x06, 0x00, 0x00, 0x00, 0x03, 0x00, 0x00, 0x00, 0xe8, 0xfb, 0xff, 0xff,
  0x09, 0x00, 0x00, 0x00, 0x00, 0x00, 0x00, 0x09, 0x01, 0x00, 0x00, 0x00,
  0xcc, 0xd0, 0xff, 0xff, 0x14, 0x00, 0x00, 0x00, 0x10, 0x00, 0x00, 0x00,
  0x18, 0x00, 0x00, 0x00, 0x6c, 0x00, 0x00, 0x00, 0x5c, 0x00, 0x00, 0x00,
  0x02, 0x00, 0x00, 0x00, 0x01, 0x00, 0x00, 0x00, 0x10, 0x00, 0x00, 0x00,
  0x46, 0x00, 0x00, 0x00, 0x73, 0x65, 0x71, 0x75, 0x65, 0x6e, 0x74, 0x69,
  0x61, 0x6c, 0x2f, 0x64, 0x65, 0x6e, 0x73, 0x65, 0x2f, 0x4d, 0x61, 0x74,
  0x4d, 0x75, 0x6c, 0x3b, 0x73, 0x65, 0x71, 0x75, 0x65, 0x6e, 0x74, 0x69,
  0x61, 0x6c, 0x2f, 0x64, 0x65, 0x6e, 0x73, 0x65, 0x2f, 0x52, 0x65, 0x6c,
  0x75, 0x3b, 0x73, 0x65, 0x71, 0x75, 0x65, 0x6e, 0x74, 0x69, 0x61, 0x6c,
  0x2f, 0x64, 0x65, 0x6e, 0x73, 0x65, 0x2f, 0x42, 0x69, 0x61, 0x73, 0x41,
  0x64, 0x64, 0x00, 0x00, 0x02, 0x00, 0x00, 0x00, 0xff, 0xff, 0xff, 0xff,
  0x10, 0x00, 0x00, 0x00, 0xec, 0xd1, 0xff, 0xff, 0x00, 0x00, 0x0a, 0x00,
  0x10, 0x00, 0x04, 0x00, 0x08, 0x00, 0x0c, 0x00, 0x0a, 0x00, 0x00, 0x00,
  0x02, 0x00, 0x00, 0x00, 0x10, 0x00, 0x00, 0x00, 0x04, 0x00, 0x00, 0x00,
  0x01, 0x00, 0x00, 0x00, 0x0e, 0x00, 0x00, 0x00, 0x02, 0x00, 0x00, 0x00,
  0x0d, 0x00, 0x00, 0x00, 0x05, 0x00, 0x00, 0x00, 0xa8, 0xfc, 0xff, 0xff,
  0x16, 0x00, 0x00, 0x00, 0x00, 0x00, 0x00, 0x16, 0x01, 0x00, 0x00, 0x00,
  0x8c, 0xd1, 0xff, 0xff, 0x14, 0x00, 0x00, 0x00, 0x0f, 0x00, 0x00, 0x00,
  0x18, 0x00, 0x00, 0x00, 0x40, 0x00, 0x00, 0x00, 0x30, 0x00, 0x00, 0x00,
  0x02, 0x00, 0x00, 0x00, 0x01, 0x00, 0x00, 0x00, 0x70, 0x00, 0x00, 0x00,
  0x1a, 0x00, 0x00, 0x00, 0x73, 0x65, 0x71, 0x75, 0x65, 0x6e, 0x74, 0x69,
  0x61, 0x6c, 0x2f, 0x66, 0x6c, 0x61, 0x74, 0x74, 0x65, 0x6e, 0x2f, 0x52,
  0x65, 0x73, 0x68, 0x61, 0x70, 0x65, 0x00, 0x00, 0x02, 0x00, 0x00, 0x00,
  0xff, 0xff, 0xff, 0xff, 0x70, 0x00, 0x00, 0x00, 0x70, 0xd1, 0xff, 0xff,
  0x3e, 0xfe, 0xff, 0xff, 0x00, 0x00, 0x00, 0x05, 0x01, 0x00, 0x00, 0x00,
  0x38, 0x00, 0x00, 0x00, 0x2c, 0x00, 0x00, 0x00, 0x14, 0x00, 0x00, 0x00,
  0x00, 0x00, 0x0e, 0x00, 0x14, 0x00, 0x00, 0x00, 0x10, 0x00, 0x0c, 0x00,
  0x08, 0x00, 0x04, 0x00, 0x0e, 0x00, 0x00, 0x00, 0x03, 0x00, 0x00, 0x00,
  0x01, 0x00, 0x00, 0x00, 0x03, 0x00, 0x00, 0x00, 0x01, 0x00, 0x00, 0x00,
  0x01, 0x00, 0x00, 0x00, 0x0d, 0x00, 0x00, 0x00, 0x01, 0x00, 0x00, 0x00,
  0x0c, 0x00, 0x00, 0x00, 0x2c, 0xd2, 0xff, 0xff, 0x14, 0x00, 0x00, 0x00,
  0x0e, 0x00, 0x00, 0x00, 0x20, 0x00, 0x00, 0x00, 0x58, 0x00, 0x00, 0x00,
  0x40, 0x00, 0x00, 0x00, 0x04, 0x00, 0x00, 0x00, 0x01, 0x00, 0x00, 0x00,
  0x07, 0x00, 0x00, 0x00, 0x01, 0x00, 0x00, 0x00, 0x10, 0x00, 0x00, 0x00,
  0x22, 0x00, 0x00, 0x00, 0x73, 0x65, 0x71, 0x75, 0x65, 0x6e, 0x74, 0x69,
  0x61, 0x6c, 0x2f, 0x6d, 0x61, 0x78, 0x5f, 0x70, 0x6f, 0x6f, 0x6c, 0x69,
  0x6e, 0x67, 0x32, 0x64, 0x5f, 0x31, 0x2f, 0x4d, 0x61, 0x78, 0x50, 0x6f,
  0x6f, 0x6c, 0x00, 0x00, 0x04, 0x00, 0x00, 0x00, 0xff, 0xff, 0xff, 0xff,
  0x07, 0x00, 0x00, 0x00, 0x01, 0x00, 0x00, 0x00, 0x10, 0x00, 0x00, 0x00,
  0x28, 0xd2, 0xff, 0xff, 0x1a, 0xfe, 0xff, 0xff, 0x00, 0x00, 0x00, 0x01,
  0x24, 0x00, 0x00, 0x00, 0x18, 0x00, 0x00, 0x00, 0x04, 0x00, 0x00, 0x00,
  0x0c, 0xfe, 0xff, 0xff, 0x01, 0x00, 0x00, 0x00, 0x01, 0x00, 0x00, 0x00,
  0x00, 0x00, 0x00, 0x01, 0x01, 0x00, 0x00, 0x00, 0x0c, 0x00, 0x00, 0x00,
  0x03, 0x00, 0x00, 0x00, 0x0b, 0x00, 0x00, 0x00, 0x09, 0x00, 0x00, 0x00,
  0x02, 0x00, 0x00, 0x00, 0xd4, 0xd2, 0xff, 0xff, 0x14, 0x00, 0x00, 0x00,
  0x0d, 0x00, 0x00, 0x00, 0x20, 0x00, 0x00, 0x00, 0xb8, 0x00, 0x00, 0x00,
  0xa0, 0x00, 0x00, 0x00, 0x04, 0x00, 0x00, 0x00, 0x01, 0x00, 0x00, 0x00,
  0x15, 0x00, 0x00, 0x00, 0x01, 0x00, 0x00, 0x00, 0x10, 0x00, 0x00, 0x00,
  0x83, 0x00, 0x00, 0x00, 0x73, 0x65, 0x71, 0x75, 0x65, 0x6e, 0x74, 0x69,
  0x61, 0x6c, 0x2f, 0x63, 0x6f, 0x6e, 0x76, 0x32, 0x64, 0x5f, 0x31, 0x2f,
  0x52, 0x65, 0x6c, 0x75, 0x3b, 0x73, 0x65, 0x71, 0x75, 0x65, 0x6e, 0x74,
  0x69, 0x61, 0x6c, 0x2f, 0x63, 0x6f, 0x6e, 0x76, 0x32, 0x64, 0x5f, 0x31,
  0x2f, 0x42, 0x69, 0x61, 0x73, 0x41, 0x64, 0x64, 0x3b, 0x73, 0x65, 0x71,
  0x75, 0x65, 0x6e, 0x74, 0x69, 0x61, 0x6c, 0x2f, 0x63, 0x6f, 0x6e, 0x76,
  0x32, 0x64, 0x5f, 0x31, 0x2f, 0x43, 0x6f, 0x6e, 0x76, 0x32, 0x44, 0x3b,
  0x73, 0x65, 0x71, 0x75, 0x65, 0x6e, 0x74, 0x69, 0x61, 0x6c, 0x2f, 0x63,
  0x6f, 0x6e, 0x76, 0x32, 0x64, 0x5f, 0x31, 0x2f, 0x42, 0x69, 0x61, 0x73,
  0x41, 0x64, 0x64, 0x2f, 0x52, 0x65, 0x61, 0x64, 0x56, 0x61, 0x72, 0x69,
  0x61, 0x62, 0x6c, 0x65, 0x4f, 0x70, 0x2f, 0x72, 0x65, 0x73, 0x6f, 0x75,
  0x72, 0x63, 0x65, 0x00, 0x04, 0x00, 0x00, 0x00, 0xff, 0xff, 0xff, 0xff,
  0x15, 0x00, 0x00, 0x00, 0x01, 0x00, 0x00, 0x00, 0x10, 0x00, 0x00, 0x00,
  0x40, 0xd4, 0xff, 0xff, 0x00, 0x00, 0x0e, 0x00, 0x1a, 0x00, 0x08, 0x00,
  0x0c, 0x00, 0x10, 0x00, 0x07, 0x00, 0x14, 0x00, 0x0e, 0x00, 0x00, 0x00,
  0x00, 0x00, 0x00, 0x05, 0x01, 0x00, 0x00, 0x00, 0x3c, 0x00, 0x00, 0x00,
  0x30, 0x00, 0x00, 0x00, 0x14, 0x00, 0x00, 0x00, 0x00, 0x00, 0x0e, 0x00,
  0x18, 0x00, 0x17, 0x00, 0x10, 0x00, 0x0c, 0x00, 0x08, 0x00, 0x04, 0x00,
  0x0e, 0x00, 0x00, 0x00, 0x03, 0x00, 0x00, 0x00, 0x03, 0x00, 0x00, 0x00,
  0x03, 0x00, 0x00, 0x00, 0x03, 0x00, 0x00, 0x00, 0x00, 0x00, 0x00, 0x01,
  0x01, 0x00, 0x00, 0x00, 0x0b, 0x00, 0x00, 0x00, 0x01, 0x00, 0x00, 0x00,
  0x0a, 0x00, 0x00, 0x00, 0x2c, 0xff, 0xff, 0xff, 0x11, 0x00, 0x00, 0x00,
  0x00, 0x00, 0x00, 0x11, 0x01, 0x00, 0x00, 0x00, 0x10, 0xd4, 0xff, 0xff,
  0x14, 0x00, 0x00, 0x00, 0x0c, 0x00, 0x00, 0x00, 0x20, 0x00, 0x00, 0x00,
  0x58, 0x00, 0x00, 0x00, 0x40, 0x00, 0x00, 0x00, 0x04, 0x00, 0x00, 0x00,
  0x01, 0x00, 0x00, 0x00, 0x15, 0x00, 0x00, 0x00, 0x01, 0x00, 0x00, 0x00,
  0x08, 0x00, 0x00, 0x00, 0x20, 0x00, 0x00, 0x00, 0x73, 0x65, 0x71, 0x75,
  0x65, 0x6e, 0x74, 0x69, 0x61, 0x6c, 0x2f, 0x6d, 0x61, 0x78, 0x5f, 0x70,
  0x6f, 0x6f, 0x6c, 0x69, 0x6e, 0x67, 0x32, 0x64, 0x2f, 0x4d, 0x61, 0x78,
  0x50, 0x6f, 0x6f, 0x6c, 0x00, 0x00, 0x00, 0x00, 0x04, 0x00, 0x00, 0x00,
  0xff, 0xff, 0xff, 0xff, 0x15, 0x00, 0x00, 0x00, 0x01, 0x00, 0x00, 0x00,
  0x08, 0x00, 0x00, 0x00, 0x1c, 0xd5, 0xff, 0xff, 0x00, 0x00, 0x0e, 0x00,
  0x14, 0x00, 0x00, 0x00, 0x08, 0x00, 0x0c, 0x00, 0x07, 0x00, 0x10, 0x00,
  0x0e, 0x00, 0x00, 0x00, 0x00, 0x00, 0x00, 0x01, 0x30, 0x00, 0x00, 0x00,
  0x24, 0x00, 0x00, 0x00, 0x10, 0x00, 0x00, 0x00, 0x0c, 0x00, 0x10, 0x00,
  0x00, 0x00, 0x04, 0x00, 0x08, 0x00, 0x0f, 0x00, 0x0c, 0x00, 0x00, 0x00,
  0x01, 0x00, 0x00, 0x00, 0x01, 0x00, 0x00, 0x00, 0x00, 0x00, 0x00, 0x01,
  0x01, 0x00, 0x00, 0x00, 0x0a, 0x00, 0x00, 0x00, 0x03, 0x00, 0x00, 0x00,
  0x00, 0x00, 0x00, 0x00, 0x08, 0x00, 0x00, 0x00, 0x01, 0x00, 0x00, 0x00,
  0x0c, 0x00, 0x10, 0x00, 0x0b, 0x00, 0x00, 0x00, 0x0c, 0x00, 0x04, 0x00,
  0x0c, 0x00, 0x00, 0x00, 0x03, 0x00, 0x00, 0x00, 0x00, 0x00, 0x00, 0x03,
  0x01, 0x00, 0x00, 0x00, 0xf0, 0xd4, 0xff, 0xff, 0x14, 0x00, 0x00, 0x00,
  0x0b, 0x00, 0x00, 0x00, 0x20, 0x00, 0x00, 0x00, 0xb0, 0x00, 0x00, 0x00,
  0x98, 0x00, 0x00, 0x00, 0x04, 0x00, 0x00, 0x00, 0x01, 0x00, 0x00, 0x00,
  0x40, 0x00, 0x00, 0x00, 0x03, 0x00, 0x00, 0x00, 0x08, 0x00, 0x00, 0x00,
  0x7b, 0x00, 0x00, 0x00, 0x73, 0x65, 0x71, 0x75, 0x65, 0x6e, 0x74, 0x69,
  0x61, 0x6c, 0x2f, 0x63, 0x6f, 0x6e, 0x76, 0x32, 0x64, 0x2f, 0x52, 0x65,
  0x6c, 0x75, 0x3b, 0x73, 0x65, 0x71, 0x75, 0x65, 0x6e, 0x74, 0x69, 0x61,
  0x6c, 0x2f, 0x63, 0x6f, 0x6e, 0x76, 0x32, 0x64, 0x2f, 0x42, 0x69, 0x61,
  0x73, 0x41, 0x64, 0x64, 0x3b, 0x73, 0x65, 0x71, 0x75, 0x65, 0x6e, 0x74,
  0x69, 0x61, 0x6c, 0x2f, 0x63, 0x6f, 0x6e, 0x76, 0x32, 0x64, 0x2f, 0x43,
  0x6f, 0x6e, 0x76, 0x32, 0x44, 0x3b, 0x73, 0x65, 0x71, 0x75, 0x65, 0x6e,
  0x74, 0x69, 0x61, 0x6c, 0x2f, 0x63, 0x6f, 0x6e, 0x76, 0x32, 0x64, 0x2f,
  0x42, 0x69, 0x61, 0x73, 0x41, 0x64, 0x64, 0x2f, 0x52, 0x65, 0x61, 0x64,
  0x56, 0x61, 0x72, 0x69, 0x61, 0x62, 0x6c, 0x65, 0x4f, 0x70, 0x2f, 0x72,
  0x65, 0x73, 0x6f, 0x75, 0x72, 0x63, 0x65, 0x00, 0x04, 0x00, 0x00, 0x00,
  0xff, 0xff, 0xff, 0xff, 0x40, 0x00, 0x00, 0x00, 0x03, 0x00, 0x00, 0x00,
  0x08, 0x00, 0x00, 0x00, 0x44, 0xd5, 0xff, 0xff, 0x4e, 0xd6, 0xff, 0xff,
  0x04, 0x00, 0x00, 0x00, 0x00, 0x08, 0x00, 0x00, 0xe3, 0x32, 0x73, 0xbe,
  0x0b, 0xe6, 0x09, 0x3e, 0xfb, 0x87, 0x3d, 0xbe, 0x91, 0x23, 0x30, 0xbf,
  0x0a, 0x19, 0x2c, 0xbf, 0x49, 0x37, 0xac, 0xbe, 0x41, 0x86, 0x6a, 0xbe,
  0xbe, 0x43, 0xcc, 0xbe, 0x64, 0xb6, 0x21, 0xbe, 0x7d, 0x0d, 0x30, 0x3d,
  0x9f, 0xa0, 0xf0, 0x3d, 0x88, 0x0e, 0xb7, 0xbd, 0xd1, 0x21, 0x8c, 0x3d,
  0x3c, 0x3c, 0xb6, 0x3e, 0x63, 0xe3, 0x09, 0xbe, 0x51, 0x5b, 0xc3, 0xbd,
  0xef, 0x8c, 0x7f, 0xbd, 0x23, 0xd3, 0xad, 0xbc, 0x86, 0xe5, 0xb4, 0x3e,
  0x88, 0x9b, 0xa3, 0xbe, 0x8d, 0xf1, 0xad, 0xbd, 0x7e, 0x21, 0xae, 0x3c,
  0x15, 0x23, 0xa5, 0xbd, 0x96, 0x70, 0xde, 0xbd, 0x40, 0x63, 0x93, 0x3c,
  0x62, 0x43, 0x7f, 0xbd, 0xd1, 0x95, 0x29, 0x3e, 0x4a, 0x93, 0xd1, 0xbc,
  0xa8, 0xd3, 0x18, 0x3e, 0xd9, 0x08, 0x3d, 0x3b, 0x9f, 0x38, 0x17, 0xbe,
  0x8a, 0xe1, 0x0c, 0xbe, 0x63, 0x7e, 0xf9, 0x3e, 0xb1, 0x3b, 0x76, 0x3e,
  0x98, 0x9e, 0xf9, 0xbe, 0xa3, 0xb1, 0xfa, 0xbd, 0x01, 0xe2, 0x33, 0xbd,
  0x0d, 0x31, 0xfc, 0xbe, 0x27, 0x58, 0x57, 0xbf, 0xe8, 0xc3, 0x5d, 0xbe,
  0x38, 0xe0, 0x21, 0xbe, 0x44, 0x86, 0xc4, 0xba, 0x3d, 0x3d, 0xc3, 0xbe,
  0xee, 0xd6, 0x78, 0x3e, 0xee, 0xfe, 0x5e, 0xbe, 0xba, 0xae, 0x96, 0xbe,
  0x49, 0x7b, 0xbc, 0xbe, 0x66, 0xd4, 0xf0, 0x3d, 0xea, 0x08, 0xd0, 0xbe,
  0xd0, 0xec, 0x2b, 0xbe, 0xbb, 0x82, 0x09, 0xbf, 0x74, 0x4b, 0x25, 0x3e,
  0x43, 0x4b, 0x12, 0x3d, 0x89, 0x93, 0x3a, 0xbf, 0xe6, 0xb7, 0xb4, 0xbb,
  0xf9, 0xf0, 0x8d, 0x3d, 0x51, 0x3d, 0xeb, 0xbe, 0xf8, 0x2c, 0x6e, 0xbe,
  0x25, 0x9b, 0xba, 0xbe, 0x13, 0xf6, 0x06, 0x3e, 0xb6, 0x4b, 0xbc, 0xbe,
  0x4a, 0xa5, 0x0b, 0x3d, 0x8a, 0x48, 0xf2, 0xbc, 0xd6, 0x16, 0xc5, 0xbd,
  0xfa, 0x5e, 0x84, 0xbe, 0x50, 0xea, 0x78, 0xbe, 0xcd, 0x58, 0x2c, 0xbe,
  0xe6, 0x38, 0x4f, 0xbf, 0x0c, 0x2e, 0xb1, 0xbe, 0x4b, 0x5d, 0x0b, 0xbe,
  0x27, 0xe4, 0xd6, 0xbe, 0x14, 0x29, 0x00, 0x3d, 0x54, 0x57, 0xff, 0x3c,
  0xf5, 0x33, 0x09, 0x3e, 0x21, 0x65, 0x2a, 0x3e, 0x4b, 0x84, 0x84, 0xbe,
  0xba, 0x1f, 0x0c, 0x3e, 0xcd, 0x13, 0x7f, 0x3d, 0x0c, 0x7f, 0x5f, 0xbe,
  0x16, 0xb6, 0x0f, 0xbe, 0x2c, 0xd9, 0x81, 0xbd, 0x2d, 0xc0, 0xf4, 0xbd,
  0x0f, 0x38, 0xaf, 0x3d, 0x16, 0xcd, 0x7e, 0xbe, 0xd6, 0xb6, 0x9b, 0x3d,
  0x87, 0x44, 0x2b, 0x3e, 0xa7, 0xf9, 0x19, 0xbe, 0x11, 0x7f, 0xb7, 0xbe,
  0x7a, 0xad, 0x86, 0x3e, 0x40, 0xa3, 0x35, 0x3e, 0xe2, 0x04, 0xb1, 0x3d,
  0xd9, 0xeb, 0x6d, 0xbc, 0xbe, 0x61, 0xe4, 0xbd, 0x60, 0xfe, 0xe6, 0x3d,
  0x9f, 0x95, 0x52, 0xbd, 0x7d, 0x60, 0xad, 0xbe, 0xb0, 0xc8, 0x9a, 0xbe,
  0x7a, 0x98, 0xd8, 0xbe, 0x2e, 0x0d, 0xd0, 0xbd, 0x64, 0x56, 0x96, 0xbe,
  0x6a, 0x59, 0x59, 0xbe, 0x6f, 0x41, 0x2b, 0xbd, 0xdf, 0x73, 0xb9, 0x3c,
  0x6f, 0xd6, 0xa4, 0x3c, 0x9b, 0x51, 0x63, 0x3c, 0x17, 0xd0, 0xe4, 0xbe,
  0xae, 0xb8, 0x12, 0xbf, 0x6b, 0x2e, 0x15, 0x3d, 0xa3, 0x30, 0x3f, 0xbe,
  0x0c, 0x21, 0x0a, 0xbd, 0xbd, 0x99, 0x2a, 0xbd, 0xf3, 0x40, 0x14, 0xbc,
  0x1b, 0x01, 0xb1, 0xbe, 0xba, 0x0f, 0x26, 0xbe, 0xd6, 0x8c, 0xd9, 0x3c,
  0x2d, 0x44, 0x3d, 0x3e, 0xeb, 0x85, 0x06, 0x3f, 0x71, 0x4b, 0x96, 0xbd,
  0x0e, 0x0e, 0xb1, 0xbb, 0xf6, 0xd8, 0x5e, 0xbd, 0xf4, 0x90, 0x8a, 0xbe,
  0x85, 0xed, 0x8f, 0xbb, 0xa0, 0xbf, 0x58, 0x3d, 0x71, 0x74, 0x0c, 0x3f,
  0x0f, 0x59, 0x7f, 0x3d, 0x36, 0x76, 0x08, 0xbd, 0x9e, 0x7f, 0x22, 0xbd,
  0x8a, 0x7b, 0x08, 0xbe, 0x8b, 0x18, 0x86, 0xbe, 0x4c, 0x8f, 0x81, 0xbe,
  0x8b, 0xb3, 0x24, 0xbd, 0xdf, 0xeb, 0x0b, 0xbf, 0xdd, 0x92, 0xfa, 0xbe,
  0x48, 0xa0, 0x6b, 0xbe, 0x6f, 0x18, 0xd7, 0xbe, 0xc2, 0x68, 0x14, 0xbe,
  0x13, 0x53, 0x4f, 0xbd, 0xba, 0x88, 0x94, 0x3d, 0xa2, 0x9e, 0xd6, 0x3d,
  0xe2, 0x5a, 0xa8, 0x3d, 0xd0, 0x9a, 0x69, 0x3e, 0xa5, 0xd8, 0x07, 0x3e,
  0x77, 0xc6, 0x05, 0xbf, 0x40, 0xc8, 0x20, 0xbe, 0x8c, 0x8d, 0x04, 0x3f,
  0x8d, 0x7f, 0x21, 0x3e, 0x02, 0xf6, 0xf3, 0xbe, 0x01, 0x8f, 0x39, 0x3d,
  0x3c, 0xb6, 0xf6, 0xbe, 0xf9, 0x7e, 0xd5, 0xbd, 0x62, 0x49, 0x3c, 0xbf,
  0x4f, 0x9e, 0x18, 0xbe, 0xcc, 0xde, 0x9a, 0xbe, 0x81, 0x4c, 0x03, 0xbd,
  0x41, 0x9a, 0x07, 0xbf, 0xaf, 0x9a, 0xf7, 0x3d, 0xb1, 0xd9, 0xe0, 0xbe,
  0xa7, 0xcf, 0x43, 0x3e, 0xaa, 0x34, 0xcf, 0xbe, 0xfa, 0xdd, 0x60, 0x3e,
  0xda, 0xd7, 0x93, 0xbd, 0xf7, 0xdb, 0x01, 0xbf, 0xe2, 0x75, 0x03, 0xbf,
  0x3f, 0x7d, 0x2b, 0x3f, 0x52, 0xb3, 0x37, 0x3b, 0x25, 0xc8, 0x6e, 0xbd,
  0xf9, 0x48, 0x07, 0xbc, 0xdd, 0x93, 0xc8, 0x3e, 0x16, 0x52, 0xfa, 0xbe,
  0xe9, 0x95, 0x8b, 0xbe, 0xb8, 0xf6, 0x82, 0xbe, 0xb9, 0x49, 0x95, 0x3d,
  0x97, 0x6f, 0x57, 0x3c, 0x36, 0xd3, 0x87, 0xbd, 0xdd, 0xb2, 0xd3, 0xbd,
  0x3f, 0x3b, 0x03, 0xbe, 0x62, 0x66, 0xd1, 0xbe, 0x09, 0x95, 0xbd, 0xbc,
  0xd0, 0xc0, 0xa1, 0xbd, 0x54, 0x33, 0x99, 0x3d, 0xaa, 0x8e, 0x36, 0x3d,
  0x65, 0xae, 0xfe, 0x3c, 0xf0, 0x9f, 0x03, 0xbe, 0x1e, 0xb6, 0x8c, 0xbe,
  0x73, 0x26, 0xf5, 0xbd, 0xbe, 0x5c, 0xd9, 0x3e, 0x9e, 0xab, 0xe5, 0x3e,
  0x1c, 0x5e, 0x33, 0xbd, 0xa7, 0x38, 0x50, 0xba, 0x6b, 0x26, 0xd9, 0x3c,
  0x1f, 0x69, 0x34, 0x3d, 0xd1, 0x09, 0x58, 0xbe, 0x0f, 0x7c, 0xba, 0xbe,
  0xeb, 0x12, 0x90, 0xbe, 0xfc, 0x7f, 0x0c, 0xbf, 0x18, 0x8d, 0x88, 0xbe,
  0xc4, 0xd1, 0xbf, 0xbe, 0x92, 0x6a, 0xb9, 0x3b, 0x02, 0xb9, 0x9a, 0xbc,
  0x83, 0x6a, 0x78, 0x3c, 0xa1, 0x09, 0x80, 0xbe, 0x74, 0x6e, 0x5b, 0xbe,
  0x1f, 0x9d, 0xb2, 0xbe, 0x09, 0xe9, 0x1a, 0x3e, 0x17, 0x4a, 0xf4, 0xbd,
  0x0f, 0x1b, 0x95, 0xbd, 0xc0, 0x85, 0x8d, 0xbd, 0x6f, 0xcb, 0xb6, 0xbd,
  0xcd, 0x93, 0x03, 0xbe, 0x4c, 0xaf, 0x15, 0xbe, 0x62, 0xf4, 0x99, 0xbb,
  0xf7, 0xf5, 0xa6, 0x3e, 0x6a, 0x7c, 0x2d, 0xbe, 0x61, 0xe3, 0xbd, 0x3b,
  0xd2, 0x19, 0x9a, 0xbd, 0x38, 0x88, 0x6f, 0xbd, 0x0e, 0xfa, 0x18, 0x3f,
  0x1e, 0xd3, 0xe5, 0x3e, 0xb2, 0x2b, 0xa2, 0xbd, 0x5c, 0xc4, 0x15, 0x3c,
  0x83, 0xfd, 0xb2, 0x3d, 0x6d, 0xd4, 0xc2, 0x3c, 0x39, 0xfe, 0x51, 0x3d,
  0x4c, 0xde, 0x8f, 0xbd, 0x0f, 0x1d, 0xc8, 0xbd, 0x22, 0x50, 0x11, 0xbe,
  0xec, 0x44, 0x9c, 0x3c, 0x59, 0xba, 0x84, 0x3e, 0x11, 0x76, 0x24, 0x3f,
  0x06, 0xe1, 0xf6, 0x3d, 0x71, 0x14, 0x46, 0xbc, 0x96, 0xf4, 0xf0, 0xbd,
  0x40, 0x86, 0xa3, 0x3e, 0xf6, 0x33, 0x3a, 0xbe, 0x09, 0x29, 0x47, 0xbb,
  0x03, 0xdb, 0xea, 0xbc, 0xc9, 0xa6, 0x4d, 0x3e, 0x65, 0x40, 0x25, 0x3c,
  0xb6, 0x89, 0x36, 0xbe, 0xb0, 0x8c, 0x07, 0x3c, 0x8c, 0x20, 0x8f, 0x3c,
  0x2f, 0xd8, 0x99, 0xbe, 0x0d, 0xd1, 0xe3, 0xbd, 0x3f, 0xf5, 0x03, 0x3e,
  0x42, 0xcc, 0x1e, 0x3e, 0x2b, 0x46, 0x82, 0xbc, 0x2b, 0x94, 0x47, 0xbe,
  0x33, 0x64, 0x4b, 0xbe, 0xe3, 0x99, 0x3a, 0x3d, 0x1d, 0x4c, 0x76, 0xbe,
  0xd9, 0xd7, 0x42, 0xbe, 0xa0, 0x92, 0x45, 0x3e, 0x99, 0xaa, 0x12, 0x3e,
  0xe1, 0x6b, 0xd9, 0x3d, 0xaa, 0xed, 0x20, 0xbe, 0x8e, 0xef, 0x83, 0xbe,
  0x70, 0x45, 0x4f, 0xbe, 0x41, 0x4b, 0x57, 0x3e, 0x4e, 0x6c, 0x31, 0xbe,
  0xbe, 0x41, 0xd5, 0xbe, 0x5c, 0xcd, 0xd7, 0xbd, 0xa9, 0x3c, 0x08, 0xbf,
  0x21, 0x4a, 0x57, 0xbe, 0x73, 0x98, 0x04, 0xbe, 0x33, 0x18, 0x34, 0xbd,
  0x52, 0x4c, 0x46, 0xbd, 0xdb, 0x73, 0x02, 0x3e, 0x97, 0xd8, 0xcf, 0x3c,
  0xd8, 0xd0, 0xf9, 0x3c, 0x4c, 0xe8, 0x10, 0xbd, 0xb4, 0xe1, 0x92, 0x3e,
  0x26, 0xa7, 0x1f, 0x3d, 0xc5, 0x6a, 0xd2, 0xbd, 0x57, 0x69, 0xba, 0xbd,
  0x27, 0x87, 0xe2, 0xbd, 0xeb, 0x73, 0xa1, 0xbe, 0xd9, 0x10, 0x8e, 0xbd,
  0xf0, 0xc8, 0x9e, 0x3d, 0x9c, 0xe9, 0xd5, 0xbd, 0x2e, 0x29, 0xdf, 0xbd,
  0xa6, 0x7e, 0x9c, 0x3e, 0xe3, 0x43, 0x0f, 0x3d, 0x1a, 0xe6, 0x6f, 0xbc,
  0xbb, 0xcf, 0x1f, 0xbd, 0xee, 0xfb, 0xa4, 0xbd, 0xd5, 0x4e, 0x13, 0x3e,
  0x5a, 0xf2, 0x8d, 0x3b, 0x39, 0x2a, 0x82, 0xbd, 0xbb, 0x27, 0x3f, 0xbe,
  0x32, 0x4b, 0x82, 0xbd, 0x86, 0x5c, 0x71, 0x3d, 0xa0, 0xf0, 0x0a, 0xbf,
  0xe7, 0xa0, 0x55, 0xbe, 0xeb, 0x4a, 0x39, 0xbf, 0xf2, 0xec, 0x06, 0x3e,
  0xf2, 0xb7, 0x2d, 0xbe, 0x76, 0x84, 0x2b, 0xbd, 0x8c, 0x3c, 0x14, 0x3d,
  0x52, 0x25, 0x6e, 0xbd, 0xf2, 0xd7, 0x38, 0xbe, 0x3f, 0x87, 0xa3, 0xbb,
  0xe5, 0xed, 0x88, 0xbe, 0x2d, 0x38, 0x36, 0x3d, 0x8e, 0xbd, 0x91, 0xbd,
  0x48, 0x20, 0x78, 0x3e, 0x48, 0x13, 0x29, 0x3e, 0x4c, 0x85, 0x7a, 0x3e,
  0x58, 0x4c, 0x2c, 0x3d, 0x92, 0x4f, 0x2d, 0xbe, 0x3d, 0xda, 0x3b, 0xbf,
  0x28, 0x4d, 0xe0, 0xbc, 0xc4, 0xff, 0x56, 0x3e, 0xbf, 0xfe, 0x6d, 0x3e,
  0x08, 0x06, 0x23, 0xbe, 0x5e, 0x85, 0xa2, 0xbd, 0x78, 0xd0, 0x66, 0xbd,
  0x42, 0x08, 0x6d, 0x3d, 0x42, 0x9a, 0xc6, 0xbe, 0x2d, 0x17, 0x09, 0xbe,
  0x44, 0x71, 0x8f, 0xbe, 0x94, 0x05, 0x8f, 0xbe, 0x39, 0x44, 0xc1, 0xbd,
  0xb4, 0x25, 0x92, 0xbd, 0x4b, 0xed, 0x8f, 0x3d, 0x4b, 0x85, 0x3b, 0x3c,
  0x69, 0x22, 0xb8, 0xbd, 0xab, 0xd0, 0xbd, 0xbd, 0x0d, 0x92, 0x01, 0x3d,
  0x85, 0xa4, 0x11, 0xbd, 0x1b, 0x69, 0x4b, 0xbb, 0xe0, 0xbc, 0x3c, 0x3e,
  0x03, 0x59, 0x3b, 0x3d, 0x5f, 0x5a, 0x17, 0xbe, 0x2d, 0x77, 0x26, 0x3d,
  0x9e, 0x10, 0xa3, 0xbc, 0x12, 0xeb, 0x04, 0x3e, 0xdd, 0xfe, 0x4f, 0xbe,
  0xe7, 0x9d, 0x03, 0xbe, 0x8f, 0xe6, 0xbe, 0xbe, 0xa4, 0x27, 0xe6, 0xbe,
  0xb3, 0x5e, 0x2a, 0xbf, 0x0d, 0x01, 0x3c, 0x3d, 0x9b, 0xd7, 0x9b, 0xbe,
  0x18, 0xaa, 0x85, 0xbd, 0x36, 0xab, 0x31, 0x3f, 0xff, 0xe3, 0xda, 0x3d,
  0x51, 0xd9, 0x15, 0xbf, 0x92, 0xfe, 0xcc, 0xbd, 0xb1, 0x9e, 0x35, 0xbf,
  0xc2, 0x36, 0x59, 0x3d, 0x39, 0x85, 0xb3, 0xbe, 0xbd, 0x36, 0x30, 0xbe,
  0xed, 0xaf, 0xde, 0x3c, 0x57, 0x00, 0x97, 0xbd, 0xb8, 0xdf, 0x1a, 0x3e,
  0xc6, 0x69, 0xd0, 0xbd, 0xe9, 0xa2, 0x70, 0x3e, 0x2b, 0xd1, 0x10, 0xbe,
  0x8d, 0x16, 0x63, 0xbd, 0x93, 0x9a, 0xc5, 0xbb, 0x55, 0xd9, 0xcd, 0xbc,
  0x64, 0x4a, 0xac, 0x3e, 0x50, 0x53, 0x60, 0x3e, 0x0c, 0x33, 0xe2, 0xbc,
  0x3f, 0xd8, 0x06, 0x3d, 0xdf, 0xa5, 0xe5, 0x3d, 0x56, 0x6f, 0xe4, 0x3d,
  0x9c, 0xe7, 0x52, 0x3d, 0x4f, 0xe0, 0x72, 0x3e, 0x18, 0x67, 0xf3, 0xbc,
  0x8e, 0xc1, 0x07, 0x3d, 0x1a, 0x10, 0x24, 0xbe, 0xae, 0xd2, 0xe1, 0x3d,
  0x4f, 0x3b, 0x0f, 0xbe, 0xb4, 0xd0, 0xb8, 0xbd, 0x69, 0xd9, 0x20, 0xbe,
  0x69, 0x05, 0x1c, 0xbe, 0x87, 0xca, 0x82, 0xbd, 0xd9, 0x5e, 0x18, 0x3d,
  0x74, 0x5e, 0x81, 0xbd, 0x86, 0xcb, 0x4e, 0x3b, 0x67, 0x8b, 0x19, 0x3e,
  0xda, 0x2b, 0x74, 0xbd, 0x24, 0xf5, 0xaf, 0xbd, 0x0c, 0xb4, 0xb4, 0xbe,
  0x00, 0x80, 0x8a, 0xbe, 0xa7, 0x16, 0x5a, 0xbe, 0x63, 0xc6, 0x21, 0xbf,
  0xb8, 0xfd, 0xca, 0xbe, 0xf2, 0x11, 0xf8, 0x3b, 0x2f, 0xb2, 0xf3, 0x3d,
  0xa3, 0x67, 0x41, 0xbe, 0xad, 0x7f, 0xc8, 0x3d, 0xa2, 0x75, 0xbd, 0xbe,
  0x26, 0x6a, 0x6d, 0x3d, 0xa3, 0xd8, 0xad, 0x3d, 0x2b, 0xb6, 0xc5, 0xbd,
  0x5e, 0x06, 0x51, 0x3e, 0x70, 0x66, 0x2e, 0x3d, 0xca, 0xc6, 0x07, 0xbe,
  0x2d, 0xee, 0xeb, 0xbd, 0xda, 0xd1, 0x98, 0xbe, 0x23, 0x9c, 0x63, 0x3e,
  0xe5, 0xb8, 0x88, 0xbe, 0x90, 0xee, 0x19, 0xbe, 0x68, 0xf3, 0x38, 0xbd,
  0x0b, 0x90, 0xa0, 0xbb, 0x26, 0x76, 0x66, 0xbd, 0x74, 0xe2, 0x6d, 0xbe,
  0x18, 0x65, 0x84, 0xbe, 0xa2, 0x02, 0xa6, 0x3d, 0x4a, 0x71, 0x70, 0xbc,
  0xa0, 0x19, 0x74, 0xbe, 0xae, 0x9d, 0xf8, 0xbd, 0xc6, 0xc1, 0x64, 0x3d,
  0xfd, 0x74, 0xcd, 0x3d, 0x65, 0x08, 0xe4, 0xbc, 0xcd, 0x10, 0x68, 0x3d,
  0x66, 0xf0, 0x52, 0xbc, 0xdf, 0xa9, 0x63, 0xbd, 0x5c, 0xbb, 0xa6, 0xbe,
  0xb4, 0xb6, 0x52, 0xbf, 0xff, 0xc9, 0xc1, 0x3d, 0x74, 0x99, 0xea, 0xbe,
  0xe8, 0xa7, 0x41, 0x3e, 0x25, 0x78, 0xb5, 0x3d, 0x15, 0x0c, 0x6f, 0xbd,
  0x54, 0xd1, 0x4d, 0xbe, 0x54, 0xe0, 0x7a, 0x3d, 0x61, 0x31, 0xbc, 0xbe,
  0x97, 0xff, 0x13, 0x3c, 0x2d, 0x8e, 0x18, 0xbf, 0x42, 0xc4, 0x0c, 0xbd,
  0x63, 0x7d, 0xc8, 0x3d, 0xeb, 0xca, 0x9b, 0x38, 0xa5, 0x63, 0x3d, 0x3e,
  0x07, 0x3b, 0x12, 0xbe, 0x5b, 0x81, 0xd4, 0xbe, 0x53, 0xa0, 0x6f, 0x3d,
  0xe8, 0xbe, 0x07, 0xbf, 0x44, 0x33, 0x84, 0xbb, 0x31, 0x0e, 0xae, 0xbd,
  0xf3, 0x79, 0x43, 0x3e, 0x55, 0xd2, 0xb3, 0xbd, 0xa1, 0x37, 0xa2, 0xbd,
  0x37, 0x28, 0xd6, 0x3d, 0x72, 0xc3, 0xd5, 0x3c, 0x03, 0x0b, 0x16, 0xbf,
  0x65, 0x66, 0x0e, 0x3a, 0xe1, 0xe7, 0x99, 0xbd, 0xe5, 0xf8, 0x04, 0x3d,
  0x4c, 0x6a, 0x9e, 0x3e, 0x27, 0x9c, 0x7f, 0x3e, 0xe2, 0xb1, 0x8b, 0xbe,
  0x66, 0xba, 0xe1, 0x3c, 0x70, 0xa9, 0x39, 0xbd, 0x84, 0x3c, 0x84, 0x3c,
  0x16, 0x5b, 0xe2, 0x3e, 0x17, 0xd5, 0x00, 0x3e, 0xb3, 0x61, 0xe3, 0x3c,
  0x28, 0xe8, 0x41, 0xbd, 0x77, 0x30, 0xdc, 0xbe, 0x59, 0xf1, 0x8e, 0x3d,
  0x7d, 0x68, 0x0c, 0xbd, 0xa2, 0x4d, 0xcc, 0x3e, 0x61, 0x96, 0x4c, 0xbd,
  0xe2, 0x95, 0x04, 0x3e, 0x5b, 0xc1, 0xb4, 0xbe, 0xab, 0x8b, 0x30, 0xbe,
  0x83, 0x3b, 0x4d, 0xbf, 0x9c, 0x5a, 0xc9, 0xbd, 0x0e, 0xfa, 0xcf, 0xbd,
  0x88, 0xe4, 0x06, 0xbe, 0x12, 0x01, 0xde, 0x3b, 0x1b, 0x5e, 0xb0, 0x3d,
  0xfc, 0x71, 0xa8, 0xbc, 0x83, 0xc7, 0x5b, 0xbd, 0x8f, 0xd4, 0x47, 0xbf,
  0xa0, 0xe8, 0x0b, 0xbc, 0x98, 0x25, 0x64, 0x3c, 0xbc, 0xb7, 0x93, 0x3e,
  0x26, 0xd8, 0x71, 0x3d, 0x54, 0xae, 0xe3, 0xbe, 0xe1, 0x1b, 0x0a, 0x3f,
  0xcc, 0xb5, 0x95, 0xbe, 0xa4, 0xbc, 0x4f, 0xbf, 0x90, 0x50, 0x93, 0xbe,
  0xa0, 0xa1, 0xc4, 0x3d, 0xfd, 0x4b, 0xcb, 0x3d, 0x92, 0x8c, 0x56, 0x3e,
  0xef, 0xda, 0x0b, 0xbe, 0x46, 0x01, 0x77, 0x3d, 0xb1, 0xcb, 0xb7, 0xbd,
  0xbe, 0x93, 0xf8, 0xbe, 0x4e, 0x47, 0xa7, 0xbe, 0x28, 0x1d, 0x03, 0xbd,
  0xac, 0x03, 0xd7, 0xbe, 0x4b, 0x70, 0x6e, 0xbe, 0x7f, 0xf7, 0xce, 0xbd,
  0xa5, 0x75, 0xaf, 0x3d, 0xd8, 0x20, 0xdd, 0xbd, 0x74, 0x1b, 0xe0, 0xbe,
  0xa0, 0x9d, 0x91, 0xbd, 0x81, 0x78, 0x80, 0x3c, 0x58, 0x27, 0x07, 0xbf,
  0xf7, 0x11, 0x9d, 0xbe, 0x89, 0xe7, 0x0e, 0xbf, 0x9a, 0x6e, 0x25, 0x3d,
  0x9a, 0xb1, 0x01, 0xbf, 0x6d, 0x35, 0xba, 0xbc, 0x0a, 0x28, 0x13, 0xbe,
  0xf8, 0xee, 0xd0, 0xbd, 0x26, 0xde, 0xff, 0xff, 0x10, 0x00, 0x00, 0x00,
  0x0a, 0x00, 0x00, 0x00, 0x1c, 0x00, 0x00, 0x00, 0x38, 0x00, 0x00, 0x00,
  0x04, 0x00, 0x00, 0x00, 0x10, 0x00, 0x00, 0x00, 0x04, 0x00, 0x00, 0x00,
  0x01, 0x00, 0x00, 0x00, 0x08, 0x00, 0x00, 0x00, 0x1a, 0x00, 0x00, 0x00,
  0x73, 0x65, 0x71, 0x75, 0x65, 0x6e, 0x74, 0x69, 0x61, 0x6c, 0x2f, 0x63,
  0x6f, 0x6e, 0x76, 0x32, 0x64, 0x5f, 0x31, 0x2f, 0x43, 0x6f, 0x6e, 0x76,
  0x32, 0x44, 0x00, 0x00, 0x9c, 0xdd, 0xff, 0xff, 0xa6, 0xde, 0xff, 0xff,
  0x04, 0x00, 0x00, 0x00, 0x80, 0x01, 0x00, 0x00, 0x09, 0x86, 0x9f, 0x3e,
  0x5a, 0x38, 0x9f, 0x3e, 0x0c, 0x31, 0x1f, 0xbd, 0xc8, 0x29, 0x4b, 0x3e,
  0x77, 0x8f, 0xb1, 0xbe, 0xf7, 0x4e, 0x23, 0x3e, 0xd8, 0xf0, 0x32, 0xbe,
  0x86, 0xc1, 0x09, 0x3e, 0xa6, 0x1e, 0x1e, 0x3e, 0x04, 0x6c, 0x9d, 0xbe,
  0xa6, 0x67, 0xb2, 0x3c, 0xea, 0x56, 0x07, 0xbe, 0xb5, 0xfa, 0x83, 0x3d,
  0x2b, 0x41, 0x8b, 0xbd, 0xfe, 0x71, 0xe6, 0x3d, 0x39, 0x7a, 0x77, 0x3e,
  0x2d, 0x65, 0x7b, 0xbb, 0x8f, 0xaf, 0x9f, 0x3d, 0xa8, 0x20, 0x0d, 0x3c,
  0x08, 0x09, 0x34, 0x3e, 0x0a, 0x7b, 0x10, 0x3e, 0xf1, 0x44, 0x65, 0xbe,
  0x5e, 0x55, 0x78, 0x3e, 0x57, 0xf7, 0xcf, 0x3d, 0xc9, 0xb2, 0xa9, 0x3b,
  0xb5, 0x6a, 0x3d, 0x3e, 0x30, 0x89, 0x5f, 0x3e, 0x42, 0x20, 0x9a, 0x3e,
  0x15, 0x8a, 0xb3, 0x3c, 0x1a, 0xe9, 0x82, 0x3e, 0xf7, 0x0c, 0xe9, 0xba,
  0xb4, 0x5b, 0x8e, 0xbd, 0x03, 0x3e, 0x3a, 0x3e, 0x39, 0xe3, 0x44, 0xbd,
  0x74, 0x9a, 0x1f, 0x3e, 0x9e, 0x64, 0xd7, 0xbd, 0xbf, 0x5a, 0xc4, 0xbc,
  0x49, 0x76, 0x6d, 0x3c, 0x5a, 0xfb, 0xa7, 0xbe, 0x82, 0x11, 0x2d, 0x3e,
  0x8a, 0x76, 0x7d, 0x3d, 0x25, 0x6d, 0x61, 0xbe, 0x9a, 0x43, 0xdc, 0x3d,
  0x9c, 0x51, 0xa5, 0x3c, 0x4b, 0xa7, 0xa6, 0x3e, 0x7a, 0xa0, 0xd3, 0xbd,
  0x86, 0xfc, 0x98, 0xbc, 0x0d, 0x73, 0x90, 0x3e, 0xf3, 0x2f, 0x89, 0x3e,
  0x08, 0x1b, 0x38, 0xbd, 0xe9, 0x60, 0x6d, 0xbd, 0xb1, 0x3c, 0x02, 0xbb,
  0x28, 0x69, 0x5d, 0xbd, 0xf5, 0x08, 0xd3, 0xbd, 0x82, 0xc0, 0xa9, 0x3e,
  0xf9, 0xb1, 0xa2, 0xbd, 0x9a, 0x04, 0xd3, 0xbc, 0xb7, 0x6a, 0xa3, 0xbe,
  0xec, 0xf9, 0xb2, 0x3e, 0x25, 0xb8, 0xae, 0x3e, 0x3b, 0x77, 0x1e, 0x3f,
  0x03, 0xfc, 0xd4, 0x3e, 0x81, 0x4a, 0x23, 0x3e, 0x0d, 0x5d, 0xce, 0xbe,
  0xc6, 0xf1, 0x73, 0xbd, 0x30, 0x23, 0x82, 0xbd, 0x8b, 0x33, 0x2c, 0x3f,
  0x78, 0x0f, 0x81, 0x3d, 0x0b, 0x9e, 0x46, 0x3d, 0x8f, 0xa5, 0x12, 0x3f,
  0x4b, 0xe1, 0xe9, 0x3c, 0x82, 0xfc, 0xb8, 0xbd, 0xb6, 0x94, 0x9c, 0x39,
  0x24, 0x66, 0x25, 0xbd, 0xfa, 0xda, 0xa8, 0xbd, 0x0b, 0x9e, 0x27, 0x3e,
  0x68, 0x1d, 0x68, 0x3e, 0x61, 0xc0, 0x3d, 0x3e, 0x5b, 0x5b, 0x26, 0xbe,
  0x25, 0x24, 0x83, 0x3e, 0xb9, 0x68, 0x74, 0x3a, 0x01, 0xbb, 0xa0, 0x3e,
  0x96, 0xe0, 0x8b, 0x3e, 0x93, 0xb3, 0x31, 0xbd, 0xe6, 0xb9, 0x17, 0x3e,
  0xb2, 0x15, 0x07, 0xbe, 0xb1, 0x11, 0x91, 0x3e, 0x88, 0x43, 0x37, 0x3e,
  0x19, 0xe4, 0x2a, 0xbb, 0x3b, 0x7f, 0x98, 0x3e, 0xe8, 0x75, 0x9d, 0x3d,
  0x97, 0x5a, 0xc0, 0x3b, 0xce, 0x5a, 0x12, 0x3d, 0x9e, 0xfd, 0x1e, 0x3d,
  0x4e, 0x16, 0x28, 0x3e, 0xcd, 0xa8, 0xbf, 0xbe, 0xfe, 0xdf, 0xff, 0xff,
  0x10, 0x00, 0x00, 0x00, 0x09, 0x00, 0x00, 0x00, 0x1c, 0x00, 0x00, 0x00,
  0x38, 0x00, 0x00, 0x00, 0x04, 0x00, 0x00, 0x00, 0x08, 0x00, 0x00, 0x00,
  0x04, 0x00, 0x00, 0x00, 0x03, 0x00, 0x00, 0x00, 0x01, 0x00, 0x00, 0x00,
  0x18, 0x00, 0x00, 0x00, 0x73, 0x65, 0x71, 0x75, 0x65, 0x6e, 0x74, 0x69,
  0x61, 0x6c, 0x2f, 0x63, 0x6f, 0x6e, 0x76, 0x32, 0x64, 0x2f, 0x43, 0x6f,
  0x6e, 0x76, 0x32, 0x44, 0x00, 0x00, 0x00, 0x00, 0x74, 0xdf, 0xff, 0xff,
  0x7e, 0xe0, 0xff, 0xff, 0x04, 0x00, 0x00, 0x00, 0xc0, 0x00, 0x00, 0x00,
  0x49, 0xf6, 0x84, 0x3c, 0x80, 0x51, 0x33, 0xbe, 0x4e, 0x1b, 0xe3, 0x3d,
  0x49, 0x5a, 0x4a, 0xbd, 0x83, 0xc9, 0xc7, 0x3d, 0x19, 0x85, 0x8a, 0x3e,
  0x4b, 0x17, 0x72, 0xbe, 0x99, 0xd4, 0x78, 0xbe, 0x7a, 0x64, 0x67, 0x3e,
  0x33, 0xfd, 0xb4, 0xbe, 0x4c, 0xe5, 0x3a, 0x3e, 0xa7, 0xe4, 0x23, 0x3e,
  0x06, 0x1f, 0x94, 0x3e, 0xbd, 0x4a, 0x82, 0xbb, 0xfb, 0xe2, 0x67, 0xbe,
  0x33, 0xcd, 0xd2, 0x3e, 0x5d, 0x11, 0x82, 0x3c, 0x95, 0xb5, 0x0d, 0xbe,
  0xf9, 0xe6, 0x42, 0x3e, 0x32, 0x84, 0x28, 0x3e, 0xac, 0x42, 0x42, 0x3d,
  0xc3, 0x32, 0x3e, 0x3e, 0x2b, 0x8a, 0x2f, 0xbe, 0xdf, 0x26, 0x11, 0xbe,
  0xc5, 0x86, 0x94, 0x3e, 0xa6, 0xc4, 0xc9, 0xbe, 0x38, 0xf2, 0x2f, 0x3e,
  0x22, 0xb5, 0x85, 0x3e, 0xde, 0x8a, 0xa3, 0x3e, 0x5c, 0xc6, 0x5d, 0x3c,
  0x7a, 0xd3, 0x58, 0xbe, 0x7c, 0x21, 0x83, 0x3e, 0xf4, 0xfd, 0x01, 0xbe,
  0xde, 0x1f, 0xb9, 0xbd, 0x2c, 0x67, 0x18, 0x3e, 0x0b, 0x4d, 0x03, 0x3e,
  0xe3, 0xec, 0xdf, 0x3d, 0x76, 0xa9, 0x13, 0x3d, 0x54, 0x69, 0x58, 0xbe,
  0xff, 0xd9, 0x01, 0xbe, 0x99, 0xfd, 0x71, 0x3e, 0xfd, 0x76, 0xd6, 0xbe,
  0xa6, 0x66, 0x62, 0x3e, 0xc8, 0x9d, 0x95, 0x3e, 0x51, 0x63, 0xad, 0x3e,
  0xab, 0xed, 0x40, 0x3c, 0x66, 0x78, 0x06, 0xbe, 0xe9, 0x75, 0x83, 0x3e,
  0x16, 0xe1, 0xff, 0xff, 0x10, 0x00, 0x00, 0x00, 0x08, 0x00, 0x00, 0x00,
  0x14, 0x00, 0x00, 0x00, 0x30, 0x00, 0x00, 0x00, 0x02, 0x00, 0x00, 0x00,
  0x03, 0x00, 0x00, 0x00, 0x10, 0x00, 0x00, 0x00, 0x19, 0x00, 0x00, 0x00,
  0x73, 0x65, 0x71, 0x75, 0x65, 0x6e, 0x74, 0x69, 0x61, 0x6c, 0x2f, 0x64,
  0x65, 0x6e, 0x73, 0x65, 0x5f, 0x31, 0x2f, 0x4d, 0x61, 0x74, 0x4d, 0x75,
  0x6c, 0x00, 0x00, 0x00, 0x84, 0xe0, 0xff, 0xff, 0x8e, 0xe1, 0xff, 0xff,
  0x04, 0x00, 0x00, 0x00, 0x00, 0x1c, 0x00, 0x00, 0xd5, 0x7a, 0xd9, 0xbd,
  0x52, 0x4f, 0x2f, 0xbd, 0x6e, 0x15, 0xfd, 0xbd, 0xca, 0x62, 0xb7, 0x3e,
  0x56, 0xe2, 0xd3, 0xbd, 0xb2, 0x06, 0xfe, 0x3e, 0xba, 0xd8, 0x17, 0x3e,
  0x2b, 0x87, 0x63, 0x3c, 0xba, 0x6e, 0xfd, 0xbd, 0xa7, 0x87, 0x25, 0xbe,
  0x24, 0x4c, 0xd7, 0x3c, 0xd6, 0x83, 0xb1, 0xbd, 0x08, 0x64, 0x85, 0xbd,
  0x98, 0xac, 0x65, 0xbe, 0xf2, 0xda, 0xa1, 0xbd, 0x76, 0x94, 0xa5, 0x3a,
  0xfc, 0xbf, 0x05, 0xbe, 0x11, 0x50, 0x1b, 0x3e, 0x75, 0xf6, 0xe4, 0xbd,
  0x3f, 0x67, 0xa6, 0xbd, 0x20, 0xc0, 0x39, 0x3d, 0xc4, 0x32, 0xef, 0x3e,
  0x62, 0x33, 0xfd, 0x3d, 0xa2, 0x05, 0xa0, 0xbc, 0xcc, 0x53, 0xcf, 0xbc,
  0x80, 0xe5, 0x4b, 0xbd, 0xb5, 0xd7, 0x83, 0xbe, 0xf6, 0xd5, 0xd2, 0xbd,
  0x3f, 0xa7, 0x5b, 0x3d, 0x1c, 0x60, 0xff, 0xbd, 0x62, 0x4d, 0xd1, 0x3d,
  0xee, 0xaa, 0x8f, 0x3e, 0x90, 0xd6, 0x19, 0x3d, 0x4d, 0x25, 0xaf, 0xbe,
  0xe3, 0x2e, 0x93, 0x3d, 0xd2, 0x73, 0x44, 0xbf, 0xca, 0x52, 0xd5, 0xbd,
  0x4f, 0x92, 0x92, 0x3c, 0x3f, 0xba, 0x8e, 0x3d, 0x66, 0x25, 0x26, 0xbe,
  0x77, 0x5b, 0x27, 0x3c, 0x3b, 0x13, 0x97, 0x3d, 0xb8, 0x5e, 0xa7, 0x3d,
  0x52, 0x86, 0x57, 0xbc, 0x77, 0x64, 0x6f, 0x3d, 0xc8, 0x37, 0x4e, 0x3d,
  0xd2, 0x0b, 0x0e, 0x3d, 0xc6, 0x1e, 0x02, 0xbe, 0xe1, 0x1d, 0x49, 0x3d,
  0xed, 0x3e, 0xc8, 0xbd, 0x55, 0x1b, 0x31, 0x3e, 0x66, 0x64, 0x17, 0xbf,
  0x2f, 0x8b, 0xea, 0x3d, 0x4b, 0x07, 0x90, 0xbe, 0x77, 0xcd, 0x19, 0xbd,
  0x4e, 0xb3, 0xaa, 0xbe, 0x96, 0x3b, 0xa6, 0x3d, 0xca, 0x54, 0xef, 0x3c,
  0x21, 0xba, 0xf8, 0x3d, 0xd9, 0x8c, 0x58, 0x3c, 0xd8, 0x15, 0x1f, 0x3d,
  0x6d, 0x5d, 0x82, 0x3e, 0xe9, 0xea, 0xa1, 0xbd, 0xfb, 0x6c, 0x97, 0xbe,
  0x6a, 0x5a, 0x31, 0x3d, 0x2d, 0xda, 0x29, 0x3e, 0x22, 0x04, 0xdc, 0xbb,
  0x23, 0x8d, 0xe0, 0xbc, 0xae, 0x9e, 0x5f, 0xbe, 0xdd, 0x48, 0xe7, 0xbc,
  0xfa, 0x82, 0xca, 0x3d, 0xae, 0xc8, 0x86, 0xbe, 0x7d, 0x66, 0x27, 0x3d,
  0x8f, 0x8f, 0xcc, 0xbd, 0x40, 0xb3, 0xe2, 0x3d, 0xc2, 0x5c, 0xf7, 0xbd,
  0x91, 0x1b, 0xfd, 0x3c, 0x55, 0x62, 0xd6, 0xbd, 0xd1, 0x28, 0x32, 0xbe,
  0xa3, 0x03, 0x2b, 0xbe, 0xb8, 0xfd, 0xae, 0xbd, 0x81, 0xf6, 0xdb, 0xbd,
  0x96, 0x7f, 0xf7, 0x3d, 0x4f, 0xad, 0x38, 0x3f, 0x46, 0xa1, 0x9f, 0x3e,
  0x50, 0xb7, 0x02, 0x3e, 0x63, 0x8a, 0xcc, 0x3e, 0x63, 0x8a, 0x1a, 0xbe,
  0x1b, 0x21, 0xe0, 0x3c, 0x8c, 0xd2, 0x01, 0x3e, 0xb8, 0xd6, 0xb3, 0x3e,
  0x5e, 0xda, 0x64, 0xbd, 0xf4, 0x3f, 0x1c, 0xbc, 0xb6, 0xbc, 0x00, 0xbe,
  0xb5, 0x5a, 0x50, 0x3d, 0x3e, 0xba, 0x98, 0xbc, 0xfe, 0xf4, 0x47, 0xbd,
  0xd5, 0x96, 0x89, 0xbd, 0x0b, 0x1b, 0x09, 0x3e, 0x3b, 0x68, 0x3c, 0xbd,
  0x8f, 0xf1, 0x0a, 0xbe, 0x9b, 0xc9, 0xe6, 0x3e, 0x82, 0x3a, 0x6a, 0x3d,
  0xef, 0xde, 0x4a, 0x3c, 0x10, 0x80, 0x98, 0xbd, 0x1e, 0x01, 0x1a, 0xbd,
  0x79, 0x5f, 0x64, 0xbd, 0xc7, 0x15, 0x77, 0xbd, 0xe2, 0x78, 0x86, 0xbe,
  0x59, 0x9a, 0x85, 0xbe, 0x65, 0xb0, 0xeb, 0x3d, 0x21, 0x7b, 0x12, 0x3e,
  0xdf, 0xd5, 0x00, 0x3e, 0xf6, 0x91, 0x48, 0xbe, 0x17, 0x0d, 0x1a, 0xbe,
  0xe8, 0xd2, 0x32, 0xbe, 0x35, 0xbe, 0x0b, 0xbe, 0xd8, 0x3b, 0x1d, 0x3d,
  0xa8, 0xbf, 0x0d, 0xbe, 0x1b, 0xc2, 0x09, 0xbe, 0xc3, 0x66, 0xb4, 0x3e,
  0x76, 0x04, 0xb2, 0xbb, 0x30, 0xe7, 0xb1, 0x3d, 0xa1, 0xe6, 0x8f, 0xbd,
  0x7c, 0xd1, 0xe1, 0x3e, 0xa9, 0x6a, 0x8a, 0x3d, 0xb8, 0x7d, 0xee, 0xba,
  0x2a, 0x3d, 0xb3, 0x3c, 0x7a, 0x80, 0xcf, 0x3a, 0x4f, 0x98, 0x1d, 0xbd,
  0x88, 0xc2, 0x64, 0x3e, 0xb4, 0x22, 0xa0, 0xbd, 0x49, 0x60, 0x9e, 0xbe,
  0x86, 0x28, 0x5e, 0x3d, 0x34, 0x26, 0x6d, 0xbb, 0xcd, 0x2d, 0x42, 0x3e,
  0xa5, 0xb2, 0x06, 0x3e, 0x9e, 0x10, 0x43, 0xbe, 0x64, 0x80, 0x40, 0x3d,
  0xc7, 0x1f, 0xf2, 0xbd, 0x36, 0xea, 0x11, 0x3d, 0x0d, 0x6f, 0x9d, 0x3e,
  0xdd, 0x09, 0xe6, 0xbd, 0x2e, 0xa5, 0x40, 0x3d, 0x95, 0x96, 0xc7, 0xbc,
  0x67, 0x6a, 0x40, 0xbd, 0x67, 0xa6, 0x2e, 0xbe, 0x8c, 0x76, 0xf2, 0x3d,
  0x55, 0xd3, 0xff, 0x3c, 0x65, 0x37, 0xb2, 0x3a, 0xbe, 0x09, 0x5c, 0xbe,
  0x96, 0xd3, 0x35, 0xbe, 0x55, 0x4a, 0x01, 0xbe, 0x9d, 0x09, 0x29, 0xbe,
  0xf1, 0x40, 0x0d, 0x3e, 0x1b, 0x35, 0xf1, 0xbb, 0xb9, 0x70, 0xbf, 0x3d,
  0x7c, 0x7e, 0xe9, 0xb9, 0x34, 0x61, 0xd9, 0x3d, 0x3e, 0x74, 0xa1, 0x3d,
  0x92, 0x38, 0x05, 0xbd, 0x6a, 0x71, 0x0f, 0xbc, 0x6b, 0x77, 0xde, 0x3d,
  0xae, 0xb2, 0xe2, 0x3d, 0xd5, 0x26, 0x02, 0xbd, 0x01, 0x81, 0x9c, 0x3d,
  0x76, 0x7e, 0xd1, 0xbd, 0x70, 0xb4, 0xea, 0xbd, 0x88, 0x8c, 0xd9, 0x3d,
  0x85, 0xf0, 0xd6, 0xbd, 0x65, 0xcd, 0x5f, 0x3d, 0x81, 0x87, 0x3d, 0x3e,
  0xa1, 0xc4, 0xd5, 0xbd, 0x20, 0x6e, 0x76, 0x3d, 0xfb, 0xb9, 0x0c, 0xbe,
  0xc1, 0x15, 0x03, 0x3d, 0x61, 0x96, 0x31, 0x3e, 0x26, 0x79, 0x41, 0x3d,
  0xde, 0xe7, 0x3d, 0x3e, 0xa9, 0x1a, 0xc5, 0x3c, 0xdc, 0xa1, 0x7c, 0x3d,
  0x1d, 0x81, 0x16, 0x3e, 0x81, 0xe4, 0x58, 0xbd, 0x51, 0xc0, 0x13, 0xbe,
  0x0b, 0x94, 0xa5, 0xbc, 0x06, 0xc6, 0x1b, 0xbe, 0x7d, 0x72, 0x00, 0xbe,
  0xca, 0x6c, 0x65, 0xbc, 0x05, 0x4b, 0xe4, 0x3d, 0x98, 0x13, 0xae, 0x3c,
  0x58, 0xe0, 0x63, 0xbe, 0xd5, 0x09, 0xdc, 0xbc, 0xbf, 0xe6, 0xbb, 0x3d,
  0x75, 0x64, 0x33, 0x3e, 0xdb, 0x9b, 0xd8, 0xbd, 0x02, 0x3a, 0xce, 0xbe,
  0x30, 0xd6, 0x99, 0xbd, 0x8d, 0x53, 0xac, 0xbd, 0x77, 0x79, 0xcf, 0xbe,
  0x9c, 0xfb, 0x91, 0xbe, 0xe9, 0xe9, 0xd7, 0x3c, 0x84, 0xe7, 0x98, 0xbb,
  0x90, 0xd9, 0x52, 0xbe, 0xa4, 0x7a, 0xc8, 0xbe, 0xa5, 0x30, 0x11, 0xbe,
  0x4b, 0x2f, 0xb5, 0xbd, 0x3b, 0x1f, 0x31, 0xbc, 0x4f, 0x40, 0x80, 0x3c,
  0x17, 0x19, 0xad, 0xbd, 0x77, 0x97, 0x69, 0x3e, 0x92, 0x86, 0x2c, 0x3e,
  0x25, 0x2f, 0xa5, 0xbe, 0x73, 0xa2, 0x58, 0x3c, 0x06, 0xa7, 0x1c, 0xbe,
  0x99, 0xa2, 0x56, 0x3e, 0x80, 0x1c, 0x4b, 0xbc, 0xe2, 0x42, 0x83, 0xbd,
  0x97, 0x03, 0xa6, 0x3c, 0x7b, 0xd4, 0x62, 0x3e, 0x97, 0xf3, 0xd6, 0xbd,
  0x14, 0x18, 0x9a, 0xbb, 0x0c, 0xa4, 0x51, 0x3e, 0xe7, 0x4b, 0x92, 0xbe,
  0x7c, 0xc1, 0x7d, 0xbe, 0xee, 0x4c, 0x9e, 0xbe, 0x4c, 0xb8, 0x69, 0xbe,
  0xc9, 0x6f, 0xf0, 0xbe, 0xac, 0x68, 0x0b, 0x3f, 0x33, 0x1f, 0x1c, 0xbf,
  0x37, 0xb8, 0xa4, 0x3e, 0xf5, 0x25, 0x84, 0x3e, 0xd7, 0x5a, 0x53, 0x3e,
  0x8d, 0xe1, 0xfd, 0xbd, 0xee, 0x1b, 0x1f, 0xbe, 0x9e, 0xa0, 0x2a, 0xbf,
  0x80, 0xe3, 0x94, 0xbc, 0xbe, 0x54, 0x06, 0xbd, 0xa1, 0x3e, 0x16, 0xbf,
  0xd9, 0x83, 0x8d, 0xbd, 0xb4, 0xaf, 0x84, 0xbe, 0xea, 0x27, 0x89, 0xbd,
  0x65, 0xd4, 0xb8, 0xbc, 0x3d, 0xaf, 0x20, 0xbb, 0x9e, 0xc0, 0x08, 0x3e,
  0xe9, 0xac, 0xff, 0xbe, 0xe8, 0xcf, 0xaf, 0x3e, 0xad, 0x47, 0x19, 0x3e,
  0x1d, 0x81, 0x79, 0xbd, 0x6e, 0x29, 0xf9, 0xbd, 0x86, 0x4a, 0x0e, 0xbd,
  0x26, 0xd0, 0x25, 0xbe, 0x0b, 0xcb, 0x9b, 0xbc, 0x23, 0x83, 0x4f, 0x3e,
  0x29, 0xbe, 0xc8, 0xbe, 0x82, 0x33, 0x13, 0x3e, 0x40, 0xb3, 0x26, 0xbe,
  0x00, 0x23, 0x70, 0x3e, 0x23, 0xe5, 0xf3, 0x3d, 0xef, 0xb6, 0xd3, 0xbd,
  0xbf, 0xc4, 0x8f, 0x3e, 0x5b, 0x72, 0xa4, 0xbe, 0x85, 0x06, 0x9c, 0x3e,
  0x5f, 0xc3, 0x55, 0x3e, 0x33, 0x7a, 0xd0, 0xbe, 0xdb, 0x16, 0x73, 0xbc,
  0x08, 0x16, 0x2e, 0x3b, 0xf0, 0xe9, 0x64, 0xbe, 0xb7, 0x74, 0xb3, 0xbc,
  0x3f, 0xf3, 0xef, 0x3d, 0x35, 0xe2, 0x63, 0xbe, 0x67, 0x14, 0x82, 0x3d,
  0xed, 0xaf, 0xc4, 0xbd, 0x49, 0xd3, 0x31, 0x3d, 0xdd, 0xf0, 0x22, 0xbe,
  0xa6, 0x9e, 0xfa, 0x3d, 0x74, 0x0f, 0x7c, 0x3e, 0xe2, 0xdb, 0xb3, 0xbe,
  0x02, 0xe4, 0x45, 0x3d, 0x0f, 0x48, 0x2e, 0xbd, 0xd9, 0x20, 0xd3, 0xbe,
  0x01, 0x8e, 0xf7, 0x3b, 0x26, 0xbc, 0xcf, 0x3d, 0xd1, 0xd3, 0xc1, 0xbd,
  0x46, 0x9f, 0xb3, 0xbb, 0x10, 0xb3, 0x2f, 0xbd, 0xa5, 0x4b, 0x9b, 0xbe,
  0x40, 0x8b, 0xaa, 0x3d, 0xbe, 0x3b, 0x86, 0xbe, 0xd5, 0x07, 0x93, 0x3c,
  0xeb, 0xfd, 0x20, 0xbe, 0x35, 0x6c, 0x03, 0x3e, 0x74, 0xd9, 0x01, 0x3f,
  0xc0, 0x8d, 0xa3, 0xbe, 0x7b, 0xde, 0x2d, 0x3e, 0x3c, 0x1e, 0x0c, 0x3e,
  0x4e, 0xe7, 0xb7, 0xbe, 0x00, 0x3c, 0x12, 0x3d, 0x2b, 0x20, 0x90, 0x3d,
  0x90, 0x28, 0x1a, 0xbe, 0xeb, 0xf3, 0x82, 0x3c, 0x7c, 0x06, 0x56, 0xbd,
  0x25, 0x3b, 0x3f, 0xbe, 0xf7, 0x24, 0x34, 0x3d, 0xcf, 0xca, 0x05, 0xbe,
  0xb0, 0xcb, 0x45, 0x3e, 0x2b, 0xe1, 0xb7, 0xbe, 0xd2, 0xf0, 0x80, 0xbd,
  0x09, 0xcd, 0x27, 0x3e, 0xea, 0x2b, 0xa4, 0xbe, 0xc8, 0x6c, 0x5d, 0x3e,
  0xd2, 0x6e, 0x62, 0x3e, 0x3f, 0xf2, 0xc4, 0xbe, 0x64, 0x46, 0x12, 0xba,
  0xec, 0x75, 0x12, 0x3a, 0x85, 0x35, 0xc5, 0xbe, 0x29, 0x80, 0xee, 0x3c,
  0xe1, 0x1d, 0x41, 0xbe, 0xf7, 0x55, 0x45, 0xbe, 0x15, 0xb6, 0x95, 0x3d,
  0x03, 0xd8, 0x09, 0xbf, 0xd7, 0xc8, 0x95, 0x3d, 0x48, 0x0d, 0x69, 0xbe,
  0x5a, 0xc0, 0x39, 0xbe, 0xa5, 0x91, 0xa3, 0xbe, 0xce, 0x0b, 0x59, 0xbe,
  0xba, 0xbd, 0xf2, 0xbc, 0x04, 0x19, 0x76, 0xbe, 0x3a, 0x13, 0xbb, 0x3b,
  0xaf, 0x60, 0xa7, 0x3d, 0xb3, 0x9c, 0x98, 0x3d, 0x01, 0xe4, 0x46, 0x3d,
  0x05, 0x3c, 0x2d, 0x3d, 0x5b, 0x06, 0x6e, 0xbe, 0x59, 0x00, 0xcf, 0x3d,
  0x99, 0x28, 0x5c, 0x3c, 0xa5, 0x7d, 0x55, 0xbd, 0x0e, 0xa8, 0x2c, 0x3e,
  0xd1, 0x87, 0x42, 0x3c, 0xf4, 0x52, 0x55, 0xbe, 0x5b, 0xa9, 0x85, 0x3e,
  0x56, 0x13, 0x87, 0xbe, 0xda, 0x12, 0x04, 0x3e, 0x5a, 0x40, 0x82, 0xbc,
  0xcc, 0x05, 0x4f, 0x3d, 0xf1, 0x0f, 0x40, 0x3e, 0x7f, 0x51, 0x9c, 0xbd,
  0xbf, 0x31, 0x73, 0xbd, 0xaf, 0xda, 0x14, 0xbe, 0x67, 0xa9, 0x1d, 0x3e,
  0x84, 0x3b, 0x87, 0x3e, 0x50, 0x72, 0x34, 0xbb, 0xce, 0x52, 0x96, 0xbc,
  0x30, 0xea, 0x06, 0x3e, 0xbd, 0xb5, 0xaf, 0xbe, 0xf7, 0xf3, 0x91, 0xbe,
  0x30, 0x99, 0xdb, 0x3d, 0xaa, 0x90, 0xe7, 0xbd, 0xb8, 0x13, 0x38, 0xbd,
  0x40, 0xf2, 0x2c, 0xbe, 0xd4, 0x26, 0xe1, 0x3c, 0xd8, 0xe2, 0x04, 0x3e,
  0x13, 0x10, 0x37, 0x3e, 0xa9, 0x30, 0xc8, 0xbe, 0xd3, 0xb1, 0x35, 0xbd,
  0x2c, 0x23, 0x01, 0xbd, 0xdf, 0x39, 0xf0, 0xba, 0xcc, 0x74, 0x22, 0xbe,
  0x1d, 0xc8, 0xbd, 0xbd, 0xcc, 0xb5, 0x4a, 0x3e, 0xd7, 0xba, 0xaa, 0xbd,
  0x4c, 0xaa, 0x1d, 0xbe, 0x37, 0x1c, 0xa6, 0x3d, 0x4e, 0x77, 0xfb, 0x3d,
  0x42, 0xac, 0x66, 0xbe, 0x0c, 0x6f, 0x58, 0xbe, 0x0a, 0x80, 0xb7, 0xbd,
  0x82, 0x12, 0x87, 0x3d, 0x23, 0x06, 0x2b, 0x3e, 0x4e, 0xf6, 0x8d, 0xbd,
  0xe3, 0x1c, 0x11, 0xbb, 0xcf, 0xd8, 0xaf, 0xbc, 0xea, 0xa6, 0x1a, 0x3e,
  0x8b, 0xd0, 0xe5, 0xbd, 0xf3, 0x22, 0x34, 0xbe, 0xd3, 0x1a, 0xb3, 0x3d,
  0x28, 0xfa, 0x33, 0xbe, 0xf1, 0x94, 0x24, 0xbf, 0x30, 0x35, 0x1b, 0x3e,
  0x72, 0xd7, 0xba, 0xbd, 0x27, 0x98, 0x84, 0xbe, 0x45, 0xe0, 0xe4, 0xbe,
  0x75, 0x04, 0xc2, 0xbc, 0x15, 0x7e, 0x16, 0xbb, 0xeb, 0x11, 0x63, 0x3e,
  0x1b, 0xc3, 0x97, 0xbe, 0x15, 0xd4, 0x44, 0xbd, 0x1d, 0x2a, 0x87, 0x3d,
  0xa2, 0x90, 0x53, 0x3e, 0x9f, 0xd7, 0xea, 0xbd, 0x7f, 0x30, 0x35, 0xbd,
  0x7d, 0x6a, 0x2d, 0x3e, 0x00, 0x4e, 0x44, 0xbe, 0x17, 0xe4, 0x1d, 0xbf,
  0x7b, 0x9d, 0x6b, 0x3e, 0x8a, 0x68, 0xdf, 0xbe, 0xcb, 0x0a, 0x84, 0xbd,
  0x55, 0xaa, 0x74, 0xbe, 0x02, 0x0b, 0xcb, 0xbd, 0xbf, 0xef, 0x79, 0xbe,
  0x2b, 0x7e, 0x67, 0x3d, 0x1a, 0x1e, 0xd2, 0xbe, 0x9c, 0x32, 0x56, 0xbe,
  0x09, 0x79, 0x6a, 0x3d, 0x9e, 0xf0, 0xc4, 0x3c, 0x94, 0xa2, 0x90, 0xbe,
  0x61, 0xe1, 0x60, 0xbe, 0xf3, 0x28, 0x98, 0x3e, 0x53, 0x9b, 0xd7, 0xbd,
  0x57, 0xfe, 0x4b, 0xbf, 0x55, 0x8b, 0x4f, 0x3e, 0x9b, 0x81, 0x8f, 0xbe,
  0x37, 0x2c, 0xa4, 0xbd, 0x2c, 0xac, 0x05, 0xbe, 0x47, 0xcb, 0xae, 0x3c,
  0x92, 0x1e, 0x82, 0xbe, 0xb7, 0x8c, 0x9b, 0xbd, 0x04, 0x23, 0xd7, 0xbe,
  0x05, 0xec, 0x2a, 0xbe, 0xff, 0x7a, 0x88, 0xba, 0x5f, 0x3a, 0x45, 0x3d,
  0x71, 0x85, 0x16, 0xbe, 0x92, 0x14, 0xea, 0xbd, 0x8b, 0xf6, 0xfc, 0x3d,
  0x73, 0xbe, 0xae, 0xbd, 0xac, 0x2a, 0xe0, 0x3c, 0x71, 0xcf, 0xb5, 0x3c,
  0x92, 0x1e, 0x0c, 0x3d, 0xc4, 0x16, 0x74, 0x3e, 0xdf, 0x86, 0x07, 0xbc,
  0x6b, 0x8d, 0xfb, 0xbc, 0xf6, 0xbb, 0x4a, 0xbe, 0x4d, 0x3f, 0xeb, 0x3b,
  0xb2, 0x8e, 0x33, 0x3e, 0xf8, 0x1b, 0x8e, 0x3d, 0x0e, 0x62, 0xcc, 0x3c,
  0xc0, 0x68, 0xf3, 0xbd, 0x13, 0x62, 0x36, 0x3d, 0xdd, 0x4d, 0x93, 0x3c,
  0x04, 0x38, 0xe2, 0x3e, 0xca, 0x53, 0xab, 0x3c, 0xaf, 0x70, 0xb8, 0x3e,
  0x67, 0x92, 0x35, 0xbe, 0x1e, 0x29, 0x3a, 0x3d, 0xc8, 0x9b, 0xc4, 0xbe,
  0xfb, 0x4f, 0xa4, 0xbe, 0xc6, 0x9b, 0x4a, 0x3d, 0x5a, 0x1e, 0xa0, 0xbc,
  0x95, 0x15, 0x3c, 0xbe, 0x30, 0xb3, 0xae, 0x3d, 0xb1, 0x37, 0x85, 0xbe,
  0x1d, 0xa9, 0xcf, 0xbd, 0x4b, 0x73, 0x08, 0x3f, 0x5a, 0xe2, 0xa1, 0xbe,
  0xb8, 0x85, 0xa8, 0xbc, 0xad, 0xd2, 0x32, 0x3e, 0x06, 0xbc, 0x07, 0xbe,
  0x47, 0x87, 0x36, 0x3e, 0xf0, 0xd8, 0x34, 0x3b, 0xa6, 0xa4, 0x6f, 0x3e,
  0x31, 0x84, 0x12, 0xbe, 0x25, 0xc4, 0x92, 0xbd, 0xf2, 0xfd, 0x14, 0x3d,
  0x4f, 0x6f, 0x77, 0xbd, 0x0e, 0x6e, 0x0a, 0xbe, 0x71, 0xc3, 0x61, 0xbc,
  0x4e, 0xb8, 0x71, 0xbd, 0x04, 0xee, 0x40, 0xbd, 0xae, 0x91, 0x38, 0xbe,
  0x47, 0x2c, 0x6d, 0xbe, 0xff, 0xd9, 0x87, 0xbe, 0x22, 0x8e, 0x41, 0x3e,
  0x37, 0x52, 0x28, 0xbe, 0xd8, 0x58, 0x0b, 0x3d, 0x09, 0x6f, 0x8c, 0x3e,
  0x0c, 0x64, 0xf1, 0x3d, 0x4d, 0x18, 0x1d, 0xbe, 0xab, 0xe7, 0x81, 0xbe,
  0x42, 0x72, 0xfe, 0xbd, 0xb2, 0xb2, 0xa9, 0xbe, 0x61, 0xf8, 0xbc, 0xbd,
  0x7b, 0x09, 0x88, 0xbd, 0x51, 0xf2, 0x72, 0xbe, 0xbe, 0x72, 0x2f, 0x3e,
  0x9a, 0xb3, 0x26, 0x3e, 0x6f, 0xdc, 0x15, 0x3e, 0xaf, 0xe0, 0xe1, 0xbd,
  0x93, 0x42, 0xb7, 0x3e, 0x0c, 0xda, 0x69, 0xbd, 0xe1, 0xf1, 0x58, 0xbc,
  0x6a, 0x48, 0x18, 0x3e, 0x66, 0xe5, 0x57, 0xbc, 0x8a, 0x42, 0xf5, 0xbd,
  0xa8, 0x05, 0xe2, 0xbe, 0x3e, 0xd5, 0xeb, 0x3c, 0xa5, 0xeb, 0x3e, 0xbe,
  0x5c, 0x8f, 0xda, 0xbc, 0xd5, 0xc0, 0x8f, 0x3c, 0x83, 0xda, 0xb4, 0x3c,
  0xe5, 0x53, 0x9f, 0xbe, 0x62, 0x7d, 0x86, 0xbe, 0xcb, 0x9e, 0xba, 0xbc,
  0x25, 0x7a, 0xfc, 0xbd, 0x49, 0x65, 0x25, 0x3c, 0xaa, 0x59, 0x86, 0xbe,
  0x45, 0x11, 0x12, 0x3e, 0xbd, 0x87, 0xdf, 0x3d, 0x0c, 0x9e, 0xf9, 0x3d,
  0x62, 0x3f, 0x0a, 0x3e, 0x65, 0xb3, 0xf6, 0xbd, 0x15, 0x59, 0x17, 0x3d,
  0xeb, 0x10, 0x01, 0xbf, 0xa8, 0x64, 0xd5, 0xbd, 0x05, 0x79, 0x1e, 0x3d,
  0xb5, 0xae, 0x64, 0x3d, 0x5c, 0x7a, 0xa9, 0xbe, 0xb4, 0x0e, 0x47, 0x3e,
  0x87, 0x44, 0xac, 0x3d, 0xc6, 0x6f, 0xd6, 0xbd, 0xb0, 0xe4, 0xca, 0x3e,
  0x60, 0x22, 0xbe, 0x3d, 0x00, 0x0f, 0x3a, 0xbe, 0x19, 0xfe, 0x0d, 0xbe,
  0x73, 0x0c, 0x11, 0x3d, 0x47, 0x5c, 0x71, 0xbd, 0x13, 0x2d, 0xd1, 0xbe,
  0x64, 0x78, 0xd0, 0x3d, 0x17, 0xb9, 0x2a, 0xbf, 0x8b, 0x4b, 0x4a, 0xbe,
  0x2d, 0x2e, 0x93, 0xbe, 0xd3, 0x64, 0x6b, 0xbe, 0x74, 0x8b, 0x8c, 0xbd,
  0x2a, 0x4e, 0x23, 0xbc, 0x04, 0xdb, 0x48, 0xbe, 0x34, 0x4d, 0xb3, 0x3d,
  0x78, 0x26, 0x18, 0x3e, 0x51, 0xc2, 0x1c, 0x3e, 0xbe, 0xf0, 0xd0, 0x3e,
  0x78, 0x41, 0xca, 0xbd, 0xd5, 0xc7, 0xd8, 0x3e, 0x18, 0x68, 0x51, 0xbe,
  0x7e, 0xe3, 0x50, 0xbd, 0x58, 0x29, 0xaf, 0xbd, 0x90, 0x36, 0xc6, 0x3d,
  0xfd, 0x83, 0xea, 0xbd, 0xef, 0x11, 0xe5, 0xbd, 0xec, 0x88, 0xfb, 0xbd,
  0x7f, 0x22, 0xd8, 0x3c, 0x70, 0x81, 0xa4, 0x3e, 0x50, 0xd7, 0x1a, 0xbe,
  0x3f, 0x28, 0xe2, 0xbd, 0xc2, 0x55, 0xb4, 0xbe, 0x8d, 0xac, 0x2d, 0xbd,
  0xf7, 0x4c, 0x01, 0xbe, 0x38, 0xd0, 0xb1, 0xbe, 0x7d, 0xb9, 0xae, 0x3e,
  0xc2, 0xd6, 0x2c, 0x3d, 0x92, 0xcb, 0xb1, 0xbe, 0xae, 0x91, 0xbe, 0xbd,
  0x75, 0xe8, 0x32, 0xbe, 0xc9, 0x3a, 0x4c, 0x3d, 0x16, 0x3c, 0x16, 0xbd,
  0x29, 0x0e, 0x0f, 0x3e, 0x51, 0x4d, 0x0c, 0xbf, 0x85, 0xd7, 0x9d, 0xbe,
  0xe0, 0x02, 0x67, 0x3e, 0xfc, 0xd9, 0xc1, 0x3c, 0xc9, 0x81, 0x32, 0x3d,
  0x8b, 0x61, 0xb7, 0x3e, 0x14, 0x09, 0x3d, 0x3c, 0x0e, 0xad, 0xb2, 0x3a,
  0x47, 0xff, 0x17, 0xbd, 0xe9, 0xe8, 0x09, 0x3e, 0x19, 0x19, 0x04, 0x3e,
  0xb1, 0xa6, 0x29, 0xbe, 0xf5, 0x68, 0x0c, 0xbe, 0x87, 0xde, 0x00, 0xbe,
  0x1c, 0x27, 0x0e, 0xbe, 0xd7, 0x03, 0x2e, 0xbe, 0x6d, 0xdf, 0x51, 0xbf,
  0x2c, 0xcd, 0x83, 0xbe, 0x8f, 0xab, 0xa8, 0xbb, 0x91, 0x4f, 0x10, 0x3e,
  0xa4, 0x44, 0x34, 0xbd, 0x63, 0xa4, 0x5d, 0x3e, 0xbf, 0xf0, 0xef, 0x3d,
  0xbb, 0x52, 0x0f, 0xbd, 0x5b, 0x98, 0x9c, 0x3e, 0xb8, 0x84, 0x04, 0x3f,
  0x99, 0x29, 0x0c, 0x3e, 0xa8, 0xa6, 0x8c, 0x3d, 0x46, 0x78, 0xb8, 0xbd,
  0x72, 0xe4, 0x07, 0x3e, 0x65, 0x64, 0x24, 0x3e, 0x21, 0xb6, 0xff, 0xbd,
  0x47, 0x2c, 0xce, 0xbe, 0x33, 0xc3, 0x50, 0xbe, 0x8f, 0x7b, 0x05, 0xbd,
  0x11, 0xb5, 0x0d, 0x3e, 0x28, 0xaa, 0xd0, 0xbc, 0x2c, 0xfc, 0x2e, 0x3e,
  0xe8, 0x2f, 0x5e, 0x3e, 0xdb, 0x43, 0xc2, 0xbd, 0x3e, 0x8e, 0x72, 0x3e,
  0x88, 0x78, 0xb4, 0x3e, 0x9e, 0xfc, 0x31, 0x3e, 0x19, 0xb4, 0x7f, 0xbd,
  0xd6, 0x29, 0x64, 0x3d, 0x1d, 0x76, 0x20, 0x3e, 0x8f, 0x14, 0xe2, 0x3d,
  0xb9, 0x73, 0xb9, 0xbd, 0x67, 0x23, 0x2c, 0xbe, 0xe9, 0x1a, 0xb9, 0xbd,
  0x73, 0x6c, 0x85, 0x3d, 0xb4, 0x6f, 0xa2, 0x3d, 0xa4, 0xe0, 0xeb, 0xbc,
  0xe7, 0x44, 0x00, 0x3f, 0x6b, 0x82, 0xfd, 0x3c, 0x52, 0x0a, 0x89, 0x3d,
  0x1a, 0x39, 0x67, 0x3e, 0xcd, 0xfd, 0xa9, 0x3e, 0xa4, 0x74, 0xc1, 0x3e,
  0x92, 0x3e, 0xca, 0xbd, 0xa6, 0x3e, 0x99, 0x3d, 0xbd, 0xaf, 0x66, 0x3c,
  0x8b, 0x32, 0x63, 0x3e, 0x44, 0x55, 0xc3, 0xbd, 0x3b, 0xb3, 0x97, 0x3d,
  0x73, 0x04, 0xc2, 0xbd, 0x06, 0x5d, 0x99, 0x3d, 0x99, 0xbb, 0x00, 0x3c,
  0x71, 0x66, 0x75, 0xbe, 0x08, 0x20, 0xb5, 0x3e, 0x5a, 0x78, 0x8e, 0x3c,
  0xcd, 0xd6, 0x2f, 0x3c, 0x48, 0x09, 0x1d, 0x3f, 0x13, 0x06, 0x86, 0x3e,
  0x05, 0xd0, 0xaf, 0xbd, 0x21, 0x2d, 0xc3, 0xbb, 0x35, 0x13, 0x74, 0x3d,
  0xcc, 0xff, 0xc4, 0xbd, 0x12, 0x7f, 0xa2, 0x3c, 0x54, 0xc7, 0xd1, 0xbd,
  0x20, 0x73, 0xaf, 0x3e, 0x9a, 0x6d, 0x9e, 0xbe, 0x5b, 0x1c, 0x22, 0x3d,
  0x21, 0xc4, 0xcb, 0x3e, 0x3e, 0x5f, 0x1f, 0xbd, 0x0f, 0xdb, 0x12, 0xbe,
  0x90, 0xaa, 0x4b, 0xbe, 0xda, 0x71, 0x04, 0xbd, 0x21, 0xd4, 0xe3, 0xbc,
  0x35, 0xa8, 0x8c, 0x3e, 0xd5, 0x38, 0xbe, 0xbe, 0x77, 0xcc, 0x68, 0xbe,
  0x1c, 0xa4, 0x22, 0xbf, 0x5b, 0x46, 0x29, 0xbf, 0xac, 0xcc, 0x35, 0xbf,
  0x7e, 0xe8, 0x38, 0xbf, 0x4c, 0x90, 0x43, 0x3e, 0x8c, 0x2a, 0x5b, 0xbe,
  0xff, 0x39, 0x11, 0xbf, 0x05, 0x19, 0xd0, 0x3d, 0x83, 0x40, 0x9a, 0x3d,
  0x55, 0x6f, 0xc3, 0xbd, 0xe9, 0xb9, 0x8e, 0xbe, 0x34, 0xe1, 0xe3, 0x3e,
  0x50, 0x57, 0x36, 0xbf, 0x99, 0x5e, 0xd2, 0x3e, 0xc4, 0x5d, 0xcd, 0x3e,
  0x87, 0xd2, 0x0a, 0xbe, 0xe4, 0x63, 0x06, 0xbe, 0x75, 0xc3, 0xf5, 0xbe,
  0x4a, 0x21, 0xa9, 0xbe, 0x57, 0x82, 0x69, 0xbe, 0x3e, 0x66, 0x20, 0x3e,
  0x0a, 0x63, 0xbd, 0xbe, 0xa0, 0xe4, 0x4b, 0xbe, 0x1e, 0x4c, 0x7a, 0xbd,
  0xc5, 0xa9, 0x8e, 0xbd, 0x71, 0xc6, 0x42, 0x3d, 0xe1, 0xe2, 0xd1, 0xbd,
  0x87, 0xae, 0x8a, 0x3d, 0x34, 0x6e, 0xa3, 0xbe, 0x8c, 0xa5, 0xfb, 0x3d,
  0xca, 0x67, 0x94, 0x3e, 0xb7, 0x5c, 0x1d, 0x3d, 0x8c, 0xca, 0x34, 0xbd,
  0xae, 0xbf, 0xb3, 0xbe, 0xdc, 0x4a, 0x8d, 0xbe, 0xbd, 0xce, 0xa5, 0xbd,
  0x43, 0x10, 0xb6, 0x3d, 0xe3, 0xa0, 0xc0, 0xbe, 0x51, 0x01, 0x35, 0x3d,
  0x09, 0xe6, 0x13, 0xbe, 0x46, 0x35, 0x15, 0x3d, 0x4d, 0xc9, 0xe4, 0x3d,
  0xdb, 0x56, 0x73, 0xbe, 0xab, 0xa2, 0x0b, 0x3e, 0xed, 0x74, 0x83, 0xbe,
  0xf7, 0x4b, 0xd5, 0x3e, 0xef, 0x7f, 0x97, 0x3d, 0xd3, 0xae, 0x0e, 0xbe,
  0xe8, 0xd5, 0x87, 0xba, 0xc9, 0x4e, 0x3f, 0xbe, 0x87, 0x8c, 0x82, 0xbe,
  0xfd, 0x55, 0xed, 0xbd, 0x1b, 0x56, 0x92, 0x3e, 0x93, 0x18, 0x53, 0xbe,
  0x37, 0xa4, 0xbb, 0x3d, 0xf6, 0xbc, 0xb0, 0xbe, 0x90, 0xf1, 0x82, 0xbd,
  0x67, 0x38, 0x0f, 0xbe, 0xfc, 0x3c, 0x67, 0xbe, 0x3d, 0x47, 0x80, 0x3e,
  0x40, 0x38, 0x82, 0xbe, 0x20, 0x61, 0x22, 0x3e, 0x9e, 0x4b, 0x02, 0x3e,
  0x96, 0xfc, 0xe5, 0xbd, 0xe2, 0x91, 0x98, 0xbd, 0x68, 0x3d, 0xb6, 0x3c,
  0xa8, 0xd1, 0x54, 0xbe, 0x5b, 0xab, 0xf7, 0xbd, 0xe8, 0x75, 0x06, 0x3e,
  0xc2, 0xa3, 0xbd, 0x3c, 0x6e, 0xfe, 0xb4, 0x3d, 0xf5, 0x50, 0x4b, 0x39,
  0x61, 0xb2, 0x34, 0x3e, 0x5b, 0xb2, 0x3f, 0xbd, 0x99, 0x05, 0x10, 0xbf,
  0xfe, 0xc6, 0xab, 0x3e, 0x42, 0x00, 0x7a, 0xbe, 0x4c, 0xf3, 0x8a, 0x3e,
  0x44, 0x28, 0x2b, 0x3e, 0x89, 0xd6, 0x88, 0xbe, 0x53, 0x09, 0xad, 0x3c,
  0x89, 0x5a, 0x59, 0x3d, 0x87, 0x02, 0x67, 0xbe, 0x62, 0x88, 0xf8, 0xbd,
  0x31, 0x2b, 0x5e, 0xbd, 0x66, 0x25, 0x8c, 0xbe, 0x39, 0x4a, 0xb3, 0x3d,
  0x3b, 0x5a, 0x39, 0xbd, 0x4a, 0x02, 0xb2, 0xbc, 0xdf, 0x7f, 0xce, 0xbc,
  0x41, 0x91, 0xdc, 0xbe, 0xbf, 0xa4, 0x65, 0x3e, 0x00, 0xbc, 0xf9, 0xbe,
  0x07, 0x5a, 0x21, 0x3e, 0x3f, 0xa1, 0x4c, 0x3e, 0x1b, 0xe7, 0x89, 0x3b,
  0x52, 0x0d, 0xba, 0xbc, 0x46, 0x13, 0x72, 0xbc, 0x4f, 0xdc, 0x06, 0xbf,
  0xab, 0x9e, 0x24, 0x3d, 0x31, 0x1e, 0x83, 0xbe, 0xb2, 0x5c, 0x9f, 0x3d,
  0xd2, 0xd8, 0xc9, 0x3d, 0xaa, 0x32, 0x91, 0xbe, 0x7a, 0x4f, 0x3b, 0xbe,
  0xec, 0xf7, 0x24, 0xbe, 0x94, 0xa3, 0x2b, 0xbe, 0x9b, 0xac, 0x78, 0xbd,
  0xb3, 0xb2, 0x01, 0xbf, 0xb3, 0x8b, 0x45, 0x3e, 0xff, 0x56, 0xba, 0xbc,
  0x9b, 0xb1, 0x96, 0xbc, 0xc1, 0xe1, 0xfc, 0x3d, 0x78, 0x43, 0x13, 0x3b,
  0x36, 0x40, 0x88, 0x3d, 0xf5, 0x37, 0x54, 0x3d, 0xc2, 0x50, 0x9e, 0xbe,
  0xa0, 0xee, 0x1c, 0x3d, 0x2d, 0x7e, 0x40, 0x3e, 0xbb, 0x16, 0x28, 0xbd,
  0x5f, 0xbc, 0x43, 0x3e, 0x46, 0xa2, 0x88, 0xbe, 0x60, 0x54, 0xfa, 0x3a,
  0x2c, 0x00, 0xc6, 0xbe, 0xf1, 0x42, 0x81, 0xbe, 0xf0, 0xc2, 0x01, 0xbe,
  0x8f, 0x66, 0xe9, 0xbe, 0x5a, 0xa3, 0x77, 0xbe, 0x0a, 0x71, 0x50, 0x3e,
  0xe6, 0xd4, 0xdb, 0xbe, 0x9c, 0x59, 0xcb, 0xbd, 0x0c, 0x12, 0x69, 0x3d,
  0xa2, 0x85, 0x39, 0xbd, 0xb0, 0xee, 0x1b, 0x3e, 0xd1, 0x80, 0x04, 0xbe,
  0x66, 0xb2, 0x00, 0xbd, 0x53, 0xcd, 0x15, 0xbc, 0x12, 0x87, 0x5c, 0xbe,
  0x96, 0x35, 0x8b, 0x3e, 0xfe, 0x80, 0x95, 0xbc, 0x52, 0xf1, 0x98, 0xbd,
  0x31, 0x70, 0xb5, 0x3d, 0x17, 0x17, 0x80, 0xbe, 0x6f, 0x95, 0x9d, 0x3d,
  0x26, 0xe9, 0xae, 0xbe, 0xe0, 0xab, 0x10, 0xbe, 0x9a, 0x8f, 0xaa, 0x3d,
  0x8a, 0x54, 0xc7, 0x3d, 0xdb, 0x67, 0xc6, 0xbd, 0xb6, 0x52, 0x6b, 0xbe,
  0xd0, 0x56, 0x42, 0xbe, 0xcd, 0xae, 0x02, 0x3e, 0xaf, 0x52, 0x6f, 0x3e,
  0xf8, 0x2e, 0x93, 0x3c, 0x07, 0x91, 0xa4, 0xbc, 0x34, 0x13, 0x4a, 0xbe,
  0x3b, 0xdc, 0xb1, 0x3e, 0x7c, 0x8d, 0x1e, 0xbe, 0xe9, 0xa2, 0x7f, 0xbe,
  0x1e, 0x49, 0x55, 0xbe, 0x17, 0x3e, 0xcd, 0xbe, 0x78, 0x18, 0x30, 0xbe,
  0xa4, 0x65, 0x8a, 0xbe, 0x2e, 0x8d, 0x93, 0xbd, 0x16, 0x05, 0xf8, 0x3d,
  0x31, 0xff, 0x38, 0x3e, 0x58, 0x4e, 0x0e, 0xbe, 0xdb, 0x5a, 0x23, 0x3c,
  0x2a, 0xc3, 0xb0, 0x3d, 0x3d, 0x98, 0x10, 0x3d, 0x69, 0x2a, 0x1b, 0x3d,
  0x7e, 0x51, 0x18, 0x3e, 0xe3, 0x7c, 0x9e, 0x3e, 0xa0, 0x78, 0x1f, 0xbe,
  0x23, 0x4e, 0x1c, 0xbe, 0xee, 0x70, 0x0c, 0xbe, 0x38, 0x62, 0x78, 0xbe,
  0x0d, 0x9b, 0x71, 0xbd, 0xac, 0xb4, 0x83, 0xbd, 0xab, 0xf2, 0x4b, 0xbd,
  0x21, 0x49, 0xe0, 0x3d, 0x25, 0x43, 0xb3, 0x3c, 0xa1, 0x8e, 0x6a, 0xbe,
  0x02, 0x93, 0x36, 0xbd, 0x0e, 0xea, 0x35, 0x3d, 0x42, 0x60, 0x75, 0xbc,
  0xf6, 0x58, 0x62, 0xbe, 0x1d, 0x9a, 0x6f, 0x3e, 0xa5, 0x18, 0x38, 0xbd,
  0x6f, 0xc6, 0x95, 0x3c, 0x8f, 0xdb, 0x91, 0xbe, 0x30, 0xa7, 0x1b, 0xbd,
  0xc0, 0x1f, 0xc2, 0xbd, 0x11, 0x68, 0x94, 0xbe, 0x0b, 0xcb, 0x6d, 0xbd,
  0xc8, 0x35, 0x1a, 0x3e, 0x68, 0x29, 0x31, 0xbe, 0xcd, 0x82, 0x07, 0x3e,
  0x5c, 0x27, 0x02, 0xbe, 0xdc, 0x1d, 0xca, 0xbd, 0x24, 0x5d, 0x82, 0xbd,
  0xf8, 0xd4, 0x77, 0x3d, 0x21, 0xed, 0x71, 0x3c, 0xf3, 0x75, 0xc8, 0xbe,
  0xf8, 0xdb, 0x13, 0x3d, 0xa9, 0x90, 0x80, 0xbe, 0x71, 0x42, 0x21, 0xbf,
  0x8a, 0xaf, 0x10, 0xbe, 0x27, 0x5a, 0x49, 0xbe, 0xfa, 0x7a, 0x30, 0xbe,
  0x18, 0x2a, 0xab, 0xbe, 0x1e, 0xa8, 0x1f, 0xbc, 0x30, 0x50, 0x9f, 0xbe,
  0x62, 0x36, 0x16, 0xbe, 0xe8, 0xf6, 0x9a, 0xbd, 0x3c, 0xf3, 0x21, 0x3d,
  0xb9, 0x0a, 0xc8, 0x3e, 0x32, 0x93, 0xc1, 0x3c, 0x57, 0xf8, 0xfd, 0x3e,
  0x63, 0x0a, 0x05, 0x3e, 0x8c, 0xaf, 0x08, 0x3e, 0x94, 0x93, 0x5f, 0xbe,
  0x1a, 0x0a, 0x27, 0x3c, 0x28, 0xcf, 0x03, 0xbd, 0x3c, 0xe6, 0xe7, 0x3c,
  0xc2, 0x81, 0x0a, 0xbe, 0xe3, 0x41, 0x55, 0x3e, 0x26, 0xad, 0x01, 0x3d,
  0xb6, 0x57, 0xc1, 0x3e, 0x33, 0x93, 0xac, 0x3e, 0xa2, 0x36, 0x65, 0xbd,
  0xc4, 0xa6, 0x9e, 0xbe, 0x7a, 0x82, 0x2a, 0xbe, 0x08, 0x9d, 0xec, 0x3c,
  0x49, 0x4e, 0xb5, 0xbe, 0x24, 0x00, 0xfe, 0x3e, 0xe5, 0xc4, 0x03, 0xbf,
  0x63, 0xc5, 0xd3, 0x3e, 0x87, 0x1d, 0x68, 0x3e, 0x85, 0x4f, 0xb8, 0x3c,
  0x16, 0x78, 0xeb, 0xbe, 0x53, 0x8a, 0x2b, 0xbf, 0xc4, 0x02, 0xbc, 0xbd,
  0xeb, 0x04, 0xb2, 0xbe, 0x76, 0x07, 0x7b, 0x3d, 0xb9, 0x06, 0x17, 0xbe,
  0x36, 0x54, 0xb4, 0xbe, 0x5c, 0x67, 0x9e, 0xbc, 0x8f, 0x84, 0x0e, 0xbf,
  0xde, 0xf2, 0x32, 0xbe, 0x4e, 0xd3, 0x6c, 0x3d, 0x08, 0xa4, 0x1d, 0xbd,
  0x4f, 0x92, 0xc1, 0xbe, 0x67, 0x39, 0x96, 0x3e, 0x3f, 0xd7, 0x7e, 0x3e,
  0xc6, 0x2d, 0xf5, 0xbd, 0x0b, 0xe1, 0x98, 0xbe, 0xc4, 0x53, 0x3d, 0xbe,
  0x57, 0x6a, 0x77, 0xbe, 0x26, 0xbd, 0xfd, 0xbd, 0x86, 0x40, 0x25, 0x3e,
  0x1e, 0x4e, 0x45, 0x3a, 0x23, 0x60, 0x2c, 0xbd, 0x72, 0x93, 0x82, 0xbe,
  0x71, 0x1c, 0x3d, 0xbd, 0x9f, 0xf7, 0xf0, 0x3d, 0x0c, 0x2f, 0x7f, 0xbe,
  0xf1, 0x65, 0x22, 0xbd, 0xe8, 0xe5, 0xc9, 0xbe, 0x89, 0xa1, 0x77, 0x3e,
  0xdd, 0x02, 0xf1, 0x3d, 0x11, 0x32, 0xe2, 0xbd, 0xb8, 0x23, 0xdc, 0xbd,
  0xa5, 0x91, 0x18, 0x3d, 0xd3, 0x48, 0x97, 0xbe, 0x64, 0x86, 0xa4, 0xbd,
  0xbe, 0x7c, 0xb6, 0x3c, 0xc0, 0xb1, 0x19, 0x3e, 0x61, 0xa9, 0x30, 0x3e,
  0x54, 0xbb, 0x18, 0xbc, 0x7a, 0x99, 0x88, 0x3e, 0x7a, 0x59, 0x2e, 0xbe,
  0x00, 0x4b, 0xcd, 0xbd, 0x5d, 0x41, 0xe4, 0xbd, 0x47, 0x6d, 0x60, 0xbd,
  0x2a, 0x63, 0x4f, 0x3e, 0xde, 0x4f, 0x78, 0x3c, 0xaf, 0x13, 0x91, 0xbe,
  0x5c, 0xf6, 0xdf, 0x3c, 0x59, 0x58, 0x9b, 0xbc, 0x38, 0x42, 0x79, 0xbe,
  0xcb, 0x9c, 0x6c, 0xbc, 0xa9, 0x1e, 0xa0, 0x3d, 0x08, 0xf9, 0x44, 0x3e,
  0xe1, 0xe6, 0x10, 0x3c, 0x2e, 0xc1, 0xaa, 0xbe, 0xa9, 0x87, 0xf4, 0x3d,
  0xdc, 0xb9, 0x2d, 0xbd, 0x96, 0xbf, 0x26, 0xbe, 0x1b, 0x62, 0x72, 0x3e,
  0x09, 0xbf, 0xdc, 0xbe, 0xe9, 0x92, 0x86, 0x3e, 0x88, 0xa5, 0x2b, 0x3e,
  0x5e, 0x91, 0x84, 0xbe, 0x0b, 0x37, 0x62, 0xbd, 0x24, 0xbd, 0x25, 0x3d,
  0xb0, 0xc7, 0x7e, 0xbe, 0xfd, 0x19, 0x96, 0x3c, 0xeb, 0x74, 0xa5, 0xbc,
  0x9f, 0x35, 0x19, 0x3e, 0xbb, 0xc6, 0x8a, 0xbd, 0xa8, 0x53, 0x25, 0xbe,
  0xb7, 0x78, 0x82, 0x3c, 0x1b, 0x2b, 0xba, 0xbe, 0xe9, 0xfe, 0x3b, 0xbe,
  0xda, 0xdb, 0x19, 0x3f, 0xd5, 0x3e, 0xfc, 0xbe, 0x2e, 0x51, 0x80, 0x3e,
  0x3d, 0x3d, 0x02, 0x3e, 0x25, 0xac, 0x50, 0xbe, 0x24, 0xad, 0xc3, 0xbd,
  0x34, 0x9a, 0x22, 0x38, 0x4a, 0xbc, 0x69, 0xbe, 0x0e, 0x7a, 0xa1, 0x3d,
  0xb6, 0x6f, 0xc1, 0xbc, 0x2e, 0x88, 0x89, 0x3d, 0x17, 0xfa, 0x83, 0x3d,
  0xc3, 0xf2, 0xfa, 0xbe, 0x9b, 0x3a, 0xb6, 0x3d, 0xb4, 0x3f, 0xd1, 0xbd,
  0x55, 0x93, 0x29, 0xbd, 0x2c, 0x5e, 0x27, 0xbd, 0xe7, 0x4b, 0xe8, 0xbd,
  0xba, 0x97, 0x3f, 0x3e, 0x1d, 0x5f, 0x65, 0x3a, 0xf3, 0x3d, 0x83, 0xbd,
  0xa0, 0x6b, 0x86, 0x3b, 0x5a, 0x1b, 0x49, 0x3c, 0x94, 0xd2, 0x1e, 0x3d,
  0x36, 0x86, 0x47, 0x3d, 0xdc, 0xd6, 0x16, 0xbf, 0xf8, 0x2a, 0x84, 0xbe,
  0x97, 0x14, 0xce, 0x3d, 0x95, 0xb1, 0x8f, 0xbd, 0xff, 0x9c, 0x15, 0xbf,
  0xd3, 0xbe, 0x99, 0xbd, 0x60, 0xf6, 0x22, 0xbe, 0x41, 0xdb, 0xcc, 0xbe,
  0x78, 0xb3, 0xdf, 0x3d, 0xcb, 0x0f, 0x89, 0xbe, 0xd7, 0xc1, 0x04, 0x3d,
  0xad, 0xf9, 0x01, 0xbe, 0x3f, 0x90, 0x1a, 0xbe, 0xe3, 0xa3, 0x77, 0x3e,
  0xa0, 0x0a, 0x01, 0x3f, 0xc1, 0x02, 0x05, 0x3c, 0x1a, 0xde, 0x7f, 0xbe,
  0xf0, 0xa0, 0x10, 0xbe, 0x94, 0xa7, 0x93, 0x3e, 0x3c, 0xd4, 0xba, 0x3d,
  0x68, 0xf3, 0x11, 0x3d, 0xb8, 0x2e, 0x27, 0x3f, 0xe8, 0x9c, 0xd4, 0x3d,
  0x2b, 0xcf, 0x8f, 0xbe, 0x6b, 0x82, 0x4b, 0x3e, 0x4b, 0x70, 0x5c, 0x3e,
  0x00, 0x48, 0x89, 0x3e, 0x05, 0xec, 0x8d, 0xbe, 0x6b, 0x79, 0x23, 0x3e,
  0xea, 0x94, 0xd0, 0x3c, 0xae, 0x55, 0x64, 0x3d, 0xae, 0xc1, 0x92, 0xbd,
  0x06, 0x72, 0x53, 0xbf, 0x61, 0xc3, 0x8a, 0xbe, 0xa8, 0x3a, 0x17, 0x3b,
  0x12, 0xb2, 0x17, 0x3e, 0xc4, 0x34, 0xfe, 0xbd, 0x1f, 0x42, 0x04, 0x3f,
  0x02, 0x9b, 0x0c, 0x3d, 0x9c, 0x30, 0x78, 0x3d, 0x6f, 0xe1, 0xda, 0x3b,
  0x6d, 0x59, 0x09, 0x3f, 0x9b, 0xf2, 0xc5, 0xbd, 0xe2, 0x5d, 0x16, 0xbe,
  0xcd, 0xbc, 0x1c, 0xbd, 0x5e, 0x0e, 0x15, 0xbe, 0xd9, 0x74, 0x22, 0xbe,
  0xbf, 0x2c, 0x29, 0xbe, 0x41, 0x29, 0x3f, 0xbf, 0xde, 0x50, 0xfc, 0xbe,
  0x3f, 0x46, 0x31, 0xbe, 0x9c, 0xdf, 0x99, 0x3e, 0x2c, 0x23, 0x21, 0xbe,
  0xdb, 0xfb, 0x10, 0x3f, 0x4d, 0xdb, 0xf3, 0x3d, 0xc8, 0xe6, 0xb5, 0xbe,
  0x74, 0x9a, 0x3a, 0xbe, 0x58, 0x34, 0x0a, 0x3f, 0xad, 0x13, 0xd3, 0x3d,
  0x61, 0xb8, 0x89, 0xbe, 0x9c, 0x0e, 0xe8, 0xbd, 0xa9, 0xdd, 0x86, 0xbd,
  0xa3, 0x26, 0x1b, 0x3d, 0x39, 0xda, 0x05, 0xbe, 0x66, 0x96, 0x75, 0xbe,
  0x40, 0x86, 0x0d, 0xbf, 0x9a, 0xd7, 0x92, 0xbd, 0xed, 0x30, 0x10, 0x3e,
  0x5c, 0x33, 0x8f, 0xbd, 0xa8, 0x6b, 0x11, 0x3f, 0xe7, 0x5d, 0x42, 0x3e,
  0xc5, 0x27, 0x71, 0xbe, 0x75, 0xe5, 0x34, 0xbe, 0xeb, 0x2c, 0xf4, 0x3c,
  0x8b, 0x25, 0xd9, 0xbb, 0x26, 0x52, 0xa8, 0xbd, 0x65, 0x41, 0x4b, 0xbd,
  0xe8, 0xeb, 0xd8, 0x3c, 0x2d, 0xcf, 0x9b, 0x3d, 0x7d, 0x8d, 0x95, 0xbe,
  0xf5, 0x10, 0x8a, 0x3d, 0x4e, 0x71, 0x83, 0xbe, 0xef, 0x50, 0x33, 0xbe,
  0xb6, 0x11, 0xc0, 0x3e, 0x6b, 0x79, 0x29, 0xbe, 0xaa, 0xdf, 0xe2, 0x3e,
  0xcd, 0x34, 0xc2, 0x3e, 0x28, 0xa7, 0x01, 0xbe, 0xdd, 0x73, 0xb1, 0x3e,
  0x9e, 0x8b, 0x89, 0xbd, 0x42, 0x75, 0x28, 0x3e, 0x6d, 0x87, 0xe6, 0xbd,
  0xea, 0x7d, 0x99, 0x3e, 0x76, 0x82, 0x85, 0x3e, 0x3f, 0x1c, 0x00, 0x3f,
  0x22, 0x0d, 0xbb, 0xbd, 0x07, 0xcc, 0xdd, 0x3e, 0xe1, 0x60, 0x10, 0x3d,
  0x2a, 0xab, 0x8d, 0x3d, 0x8e, 0x82, 0x18, 0x3f, 0x1d, 0xab, 0xa0, 0xbd,
  0xea, 0x07, 0xdb, 0x3d, 0x1a, 0x64, 0x59, 0x3e, 0xeb, 0xf8, 0x77, 0x3b,
  0xef, 0x2c, 0x68, 0x3c, 0x9b, 0x48, 0xaf, 0x3d, 0x8a, 0xa0, 0x8b, 0x3d,
  0xbd, 0xc0, 0x15, 0xbd, 0x72, 0x54, 0x69, 0xbd, 0x20, 0x0c, 0xdd, 0xbb,
  0x70, 0x3f, 0xd3, 0xbe, 0x9b, 0xa8, 0x0a, 0xbe, 0x7a, 0x32, 0x05, 0xbe,
  0x52, 0x01, 0x27, 0x3a, 0x3f, 0x25, 0x03, 0xbe, 0xc1, 0x0b, 0x9b, 0x3d,
  0x2b, 0x29, 0x82, 0x3e, 0xdf, 0x06, 0xa5, 0x3d, 0x5b, 0x38, 0xe0, 0x3c,
  0x20, 0x47, 0x13, 0xbd, 0x14, 0xb8, 0xa3, 0xbd, 0xbb, 0xb7, 0xb9, 0xbe,
  0x2e, 0xb8, 0xb7, 0xbe, 0x56, 0x01, 0x4a, 0xbb, 0xbc, 0xe6, 0x07, 0x3d,
  0x5c, 0x84, 0x44, 0xbd, 0x40, 0x72, 0x86, 0xbe, 0x4c, 0x8f, 0x09, 0xbe,
  0xe3, 0x82, 0x26, 0x3d, 0x7a, 0xc9, 0x2e, 0x3d, 0xa6, 0xee, 0xac, 0xbe,
  0xcd, 0x4e, 0xd9, 0xbd, 0xa5, 0x3c, 0xe1, 0x3e, 0x0b, 0x3b, 0x35, 0x3d,
  0x3c, 0xd3, 0xd2, 0xbd, 0x5e, 0x26, 0x97, 0x3e, 0x89, 0x26, 0x95, 0xbd,
  0xab, 0xc7, 0x6f, 0xbe, 0x7e, 0x9a, 0x9b, 0xbe, 0x50, 0x7c, 0x0a, 0x3d,
  0x06, 0xc2, 0x77, 0xbe, 0x05, 0x68, 0x05, 0x3e, 0xaa, 0xf1, 0xf0, 0xbd,
  0x75, 0x82, 0x99, 0xbd, 0x51, 0xab, 0xa6, 0xbe, 0xdf, 0x16, 0xd1, 0xbd,
  0x30, 0x7c, 0x91, 0xbd, 0x0d, 0x73, 0x92, 0xbe, 0x48, 0x31, 0x71, 0x3e,
  0x40, 0x6b, 0x71, 0xbe, 0x1f, 0xb5, 0xa8, 0xbe, 0xc7, 0xcf, 0x90, 0x3e,
  0x3b, 0x32, 0x3f, 0x3d, 0x60, 0x9d, 0xb0, 0x3d, 0xcb, 0x07, 0xb3, 0xbe,
  0x13, 0x73, 0xe9, 0xbb, 0xc4, 0x7a, 0x5b, 0xbd, 0x2d, 0x97, 0x39, 0x3e,
  0xbd, 0x3e, 0x6e, 0xbe, 0x14, 0x1c, 0x8b, 0xbd, 0x64, 0xc9, 0xae, 0xbe,
  0xe6, 0xdb, 0x86, 0x3d, 0x61, 0xac, 0x04, 0x3d, 0x46, 0x8a, 0x86, 0xbd,
  0x6d, 0x05, 0xff, 0x3e, 0x6c, 0xf5, 0x54, 0xbe, 0x7c, 0x0b, 0xf4, 0xbe,
  0xc5, 0xbb, 0xa4, 0x3e, 0xf5, 0x48, 0x0a, 0xbe, 0x1a, 0x87, 0x93, 0x3d,
  0xf7, 0x8c, 0x0b, 0xbe, 0xc4, 0x2d, 0xed, 0xbd, 0xae, 0x72, 0x90, 0xbe,
  0x53, 0xfd, 0x6e, 0x3d, 0xbe, 0x79, 0x7a, 0xbd, 0xbd, 0xdb, 0x8a, 0xbe,
  0x0d, 0xdf, 0x7c, 0xbe, 0xc4, 0x32, 0xb4, 0xbd, 0x3d, 0x99, 0x08, 0x3e,
  0x15, 0xd9, 0x30, 0xbe, 0x54, 0xee, 0x94, 0xbc, 0x5a, 0xad, 0xc6, 0xbe,
  0x86, 0x3e, 0x3c, 0xbe, 0x45, 0x71, 0x4c, 0x3e, 0x30, 0xbf, 0x20, 0xbe,
  0x2a, 0x2c, 0x58, 0x3e, 0xea, 0x69, 0x43, 0xbe, 0xad, 0xcc, 0x88, 0x3d,
  0x2b, 0x1b, 0xc5, 0xbe, 0x5d, 0x43, 0x05, 0x3e, 0x7f, 0xbe, 0xa8, 0x3d,
  0xea, 0x3e, 0xb3, 0xbe, 0xf7, 0x55, 0x68, 0xbe, 0x72, 0x79, 0x2f, 0xbe,
  0x29, 0xfa, 0xc2, 0xbd, 0x7b, 0x61, 0x62, 0xbe, 0x4b, 0x95, 0xc4, 0x3e,
  0xe7, 0x30, 0x53, 0xbe, 0xe8, 0xfc, 0xb1, 0xbe, 0x55, 0x69, 0x58, 0xbf,
  0x1a, 0xbb, 0x1b, 0xbf, 0x34, 0x5b, 0x14, 0xbd, 0x16, 0x75, 0x7f, 0xbf,
  0xa7, 0xbc, 0x26, 0xbe, 0x00, 0xa9, 0xa6, 0xbe, 0xe4, 0x03, 0xb8, 0xbd,
  0x6f, 0x8f, 0xcd, 0xbe, 0xfb, 0x42, 0x80, 0xbe, 0xf6, 0xe5, 0xc6, 0xbe,
  0x65, 0x2e, 0x95, 0x3d, 0xb7, 0x7b, 0x41, 0xbd, 0x8f, 0x9d, 0x43, 0xbe,
  0x1c, 0x6e, 0x41, 0x3e, 0x2f, 0x45, 0x0a, 0x3e, 0x3a, 0x2b, 0x30, 0x3f,
  0x2c, 0x1f, 0x46, 0x3e, 0x95, 0x69, 0xd9, 0xbd, 0x08, 0x76, 0x84, 0xbe,
  0xa6, 0xab, 0xc8, 0x3d, 0x90, 0x14, 0xd4, 0xbd, 0x72, 0x03, 0xbb, 0x3b,
  0x94, 0x91, 0xcb, 0x3c, 0xd4, 0x4a, 0x05, 0x3e, 0xa6, 0x12, 0x5f, 0xbd,
  0x41, 0x54, 0x0d, 0x3f, 0x61, 0x48, 0xae, 0xba, 0x8e, 0x84, 0xfa, 0xbd,
  0x0f, 0x14, 0xb1, 0xbe, 0x1a, 0xb3, 0x46, 0x3e, 0xb1, 0x31, 0xc0, 0x3d,
  0x72, 0x58, 0xea, 0xbb, 0xaa, 0x68, 0x2d, 0xbd, 0xf1, 0x77, 0x9b, 0xbe,
  0x31, 0x25, 0x22, 0xbf, 0xc2, 0x27, 0x39, 0xbe, 0xa7, 0x8b, 0x41, 0x3d,
  0x72, 0x4e, 0x2e, 0x3e, 0xb2, 0x76, 0x75, 0x3e, 0xf5, 0xa2, 0xaa, 0xbd,
  0xf1, 0x08, 0x56, 0x3c, 0x99, 0x2a, 0x8a, 0x3e, 0x61, 0x58, 0x05, 0x3f,
  0x29, 0x4b, 0x50, 0xbe, 0x3c, 0x76, 0x41, 0x3d, 0xee, 0x3b, 0x09, 0x3e,
  0x78, 0x5c, 0x11, 0xbf, 0xa7, 0x9a, 0x10, 0xbe, 0xaf, 0x43, 0x88, 0xbd,
  0x79, 0xc0, 0x10, 0xbe, 0x74, 0x3d, 0x43, 0xbe, 0xd5, 0xf4, 0x53, 0xbe,
  0x23, 0x97, 0x56, 0x3e, 0x3a, 0xf1, 0x92, 0xbd, 0x92, 0x95, 0xea, 0x3d,
  0x6d, 0x8a, 0x56, 0xbe, 0xfc, 0x2e, 0x9b, 0x3d, 0xaa, 0x12, 0x6b, 0x3e,
  0xc4, 0x8a, 0xdb, 0x3d, 0x74, 0xf5, 0x95, 0xbe, 0x5c, 0x6e, 0x2c, 0xbf,
  0x69, 0xa7, 0x0d, 0xbe, 0x21, 0x90, 0x16, 0xbf, 0x63, 0x32, 0xa3, 0x3c,
  0x0b, 0x6a, 0x20, 0xbd, 0x1a, 0x1a, 0x4b, 0x3e, 0xc5, 0xcf, 0xb0, 0xbe,
  0x8e, 0x1d, 0x55, 0xbe, 0xf0, 0xef, 0xa8, 0x3e, 0xef, 0xd7, 0xc3, 0xbc,
  0xe7, 0xb6, 0x5f, 0x3d, 0xa8, 0xf2, 0x52, 0xbe, 0xa2, 0x79, 0x70, 0x3d,
  0xac, 0x4c, 0x15, 0x3e, 0xda, 0x9b, 0xfd, 0x3e, 0x0c, 0x05, 0x28, 0xbe,
  0x3d, 0x35, 0x38, 0xbf, 0x1d, 0xf1, 0x83, 0x3c, 0x48, 0x04, 0x82, 0xbe,
  0xc2, 0x74, 0xcf, 0xbb, 0x78, 0xfd, 0xad, 0x3d, 0x1f, 0xf0, 0x25, 0xbe,
  0x34, 0x62, 0x70, 0xbe, 0x21, 0x72, 0x9e, 0xbd, 0x4c, 0x79, 0x9c, 0x3e,
  0xb8, 0xdc, 0x9c, 0xbd, 0x0c, 0x27, 0x89, 0xbd, 0x8c, 0x1c, 0x5a, 0x3b,
  0xe1, 0xa6, 0x12, 0x3d, 0x98, 0x5c, 0xa3, 0x3d, 0xb7, 0xa4, 0xd9, 0x3e,
  0x45, 0x89, 0xa9, 0xbe, 0x41, 0x40, 0x49, 0xbe, 0x4a, 0x42, 0x95, 0x3d,
  0x46, 0xf8, 0x74, 0xbe, 0x6f, 0x63, 0x23, 0x3d, 0xbe, 0xfc, 0xac, 0xbe,
  0x37, 0xb8, 0x34, 0xbe, 0x0c, 0x5c, 0x34, 0xbe, 0x05, 0x2b, 0xa2, 0xbe,
  0xb9, 0x44, 0x8d, 0x3e, 0x7f, 0xc3, 0x12, 0xbe, 0x7e, 0xac, 0x57, 0x3d,
  0xc8, 0xc3, 0xed, 0xbc, 0xde, 0x1d, 0x22, 0xbd, 0x7b, 0x8f, 0x3d, 0x3c,
  0xe5, 0x9d, 0x25, 0x3e, 0x24, 0x7f, 0x5d, 0xbe, 0x72, 0x76, 0x87, 0xbd,
  0x5c, 0xb0, 0xac, 0x3d, 0x36, 0x91, 0x89, 0xbe, 0xa4, 0xf9, 0x04, 0xbe,
  0xc2, 0x1e, 0x0b, 0xbf, 0xc6, 0xd2, 0x82, 0xbe, 0x20, 0x18, 0x0e, 0xbe,
  0x80, 0x31, 0x18, 0xbf, 0xb8, 0xc1, 0x89, 0x3e, 0x36, 0x90, 0xc5, 0xbd,
  0x0f, 0x09, 0x3b, 0xbe, 0x52, 0x8b, 0xa8, 0xbe, 0x4e, 0x3e, 0x38, 0x3d,
  0xb2, 0x77, 0xac, 0x3d, 0xa9, 0x34, 0x71, 0x3e, 0x97, 0xfb, 0xb2, 0xbd,
  0x24, 0x05, 0x6e, 0xbd, 0xaf, 0xaa, 0x7d, 0x3d, 0xfb, 0x9b, 0x9f, 0xbb,
  0x84, 0xd9, 0xec, 0x3d, 0x18, 0xd6, 0xd4, 0xbd, 0xb7, 0x15, 0x87, 0x3d,
  0x53, 0x0b, 0xd2, 0xbe, 0xe2, 0x77, 0xcf, 0xbd, 0xf1, 0xdc, 0x66, 0x3d,
  0xf6, 0x53, 0x00, 0xbe, 0xe2, 0xdc, 0x1e, 0xbe, 0x1b, 0xb3, 0xd7, 0xbc,
  0xce, 0xd7, 0x80, 0x3d, 0x39, 0x51, 0x66, 0x3e, 0xe1, 0x18, 0x92, 0x3d,
  0x27, 0xd9, 0x90, 0xbd, 0x3c, 0x80, 0x94, 0xbe, 0x21, 0x31, 0xbb, 0x3e,
  0x6e, 0xa8, 0xfb, 0x3d, 0xf6, 0xaf, 0x89, 0x3e, 0x51, 0xbb, 0x8e, 0xbe,
  0x4c, 0x52, 0x06, 0xbe, 0x8f, 0xba, 0x61, 0xbf, 0x32, 0x82, 0xa1, 0xbe,
  0x0c, 0x76, 0x0a, 0x3d, 0x70, 0xf1, 0xe9, 0x3d, 0x29, 0x42, 0xcf, 0x3d,
  0xe9, 0x08, 0x39, 0xbd, 0xef, 0x71, 0x8d, 0xbc, 0x64, 0x6a, 0x19, 0x3e,
  0x43, 0xff, 0x31, 0x3f, 0xe0, 0x17, 0x33, 0xbe, 0xa5, 0x67, 0x08, 0x3d,
  0xc8, 0x23, 0x22, 0x3d, 0xa0, 0x9b, 0x52, 0xbf, 0xd0, 0x4d, 0x25, 0xbc,
  0xfc, 0xa9, 0x06, 0xbd, 0xa9, 0x7c, 0xc7, 0xbd, 0x2c, 0x4d, 0xa3, 0xbe,
  0xdf, 0x52, 0x84, 0xbe, 0x25, 0x5f, 0xae, 0x3d, 0x5c, 0x65, 0x9c, 0x3c,
  0x3d, 0xcf, 0x73, 0x3d, 0x1d, 0xf6, 0xfd, 0xbc, 0xaa, 0x11, 0x9b, 0xbc,
  0x92, 0x20, 0xbb, 0xbd, 0x6f, 0x8a, 0xcd, 0x3e, 0x7d, 0xd6, 0x1b, 0xbd,
  0x0d, 0xc2, 0x6d, 0xbf, 0x44, 0x2f, 0xf0, 0x3d, 0x9b, 0x7b, 0xe8, 0xbe,
  0x8d, 0x22, 0xb7, 0xbd, 0x10, 0x59, 0xb3, 0x3d, 0x13, 0x82, 0x23, 0x3e,
  0x12, 0xad, 0x97, 0xbe, 0xfb, 0x05, 0xd3, 0xbd, 0x22, 0x38, 0x84, 0x3e,
  0x9b, 0xf6, 0x92, 0xbc, 0xb4, 0x00, 0xfd, 0x3c, 0xa3, 0xc9, 0xb8, 0xbc,
  0x78, 0xd3, 0x2a, 0x3d, 0x3b, 0xa3, 0xb8, 0xbc, 0x2d, 0x25, 0x91, 0x3e,
  0xca, 0x4f, 0xdf, 0xbd, 0x6a, 0x72, 0xbd, 0xbe, 0x5d, 0xa1, 0x94, 0xbd,
  0x6a, 0xa5, 0x29, 0xbf, 0xd5, 0x93, 0xbb, 0x3d, 0x19, 0x88, 0x4f, 0x3e,
  0x32, 0xe8, 0xa6, 0xbc, 0xc5, 0x3b, 0xfb, 0xbd, 0xc5, 0x4d, 0xe2, 0x3c,
  0xfb, 0xa0, 0x7b, 0x3e, 0x24, 0x62, 0xcb, 0x3c, 0x27, 0x38, 0x1b, 0x3d,
  0x4f, 0xd7, 0x10, 0xbe, 0xef, 0xbb, 0xac, 0xbc, 0xaf, 0x2f, 0x81, 0xbd,
  0x1d, 0x43, 0x51, 0x3e, 0x78, 0xf3, 0x38, 0x3b, 0xef, 0xa8, 0x88, 0xbe,
  0x0d, 0x5c, 0x9e, 0xbc, 0x39, 0xb9, 0x26, 0xbf, 0xad, 0x3e, 0xdb, 0xbd,
  0xa7, 0xeb, 0x6d, 0xbe, 0x07, 0xd4, 0xe6, 0xbc, 0x29, 0x3a, 0xfa, 0xbd,
  0x6b, 0x33, 0x76, 0xbe, 0x32, 0x5e, 0x79, 0x3e, 0xec, 0x92, 0xc5, 0xbd,
  0xc5, 0x07, 0xac, 0xbc, 0xeb, 0x4f, 0xe7, 0x3d, 0xa6, 0x6a, 0x2b, 0xbd,
  0xee, 0xdc, 0xa2, 0xbd, 0x06, 0x4e, 0xfa, 0x3d, 0xdc, 0x8a, 0x2c, 0xbe,
  0xf2, 0x80, 0x10, 0xbf, 0x68, 0xbb, 0xdf, 0x3d, 0xf3, 0xe6, 0xf6, 0xbe,
  0xed, 0x6e, 0x05, 0xbe, 0x59, 0x77, 0x9b, 0xbf, 0xf1, 0x07, 0x91, 0xbe,
  0xf8, 0x1d, 0x65, 0xbe, 0x09, 0x45, 0x48, 0xbf, 0xe3, 0x74, 0x63, 0x3e,
  0xa5, 0x89, 0x9e, 0x3d, 0x73, 0x16, 0x77, 0xbe, 0x0f, 0x27, 0xca, 0xbe,
  0x9f, 0x21, 0x1a, 0xbd, 0xe4, 0x70, 0x23, 0xbd, 0xcb, 0x56, 0xdc, 0x3d,
  0x99, 0x39, 0x3c, 0xbd, 0x19, 0x40, 0xb9, 0xbe, 0x56, 0xd7, 0x9d, 0x3e,
  0x95, 0xa3, 0xb2, 0x3c, 0x15, 0x54, 0x1d, 0x3e, 0xef, 0xa7, 0xf3, 0x3d,
  0x8d, 0xa1, 0xec, 0x3d, 0x5e, 0x0b, 0x2d, 0xbf, 0xd6, 0xa3, 0xde, 0xbd,
  0x15, 0xee, 0x4f, 0x3d, 0x96, 0x8f, 0x5e, 0xbd, 0x27, 0x83, 0x69, 0xbe,
  0xb9, 0x6b, 0x41, 0xbd, 0x38, 0x44, 0xe1, 0x3b, 0x51, 0x8b, 0xbf, 0x3e,
  0xae, 0x63, 0x8d, 0xbd, 0xf7, 0xbc, 0x03, 0xbe, 0x8c, 0x63, 0x6d, 0xbe,
  0x2d, 0xcb, 0x8f, 0x3e, 0xb4, 0xfa, 0x66, 0x3e, 0xc3, 0x49, 0x77, 0x3b,
  0xce, 0x2f, 0x71, 0xbe, 0xfb, 0xe4, 0xfb, 0xbd, 0x17, 0x2d, 0x8f, 0xbe,
  0x15, 0xc4, 0x64, 0xbe, 0xf7, 0xaf, 0x51, 0xbd, 0x12, 0x6f, 0x57, 0x3d,
  0x6e, 0x4f, 0x33, 0xbd, 0x94, 0x3d, 0x22, 0x3d, 0x0a, 0x47, 0x3d, 0xbe,
  0xd7, 0x6e, 0x55, 0x3e, 0x65, 0x2b, 0x18, 0x3f, 0xdf, 0x90, 0x4e, 0xbe,
  0xc6, 0x48, 0x03, 0x3c, 0xe3, 0x36, 0x02, 0x3d, 0x9e, 0x5d, 0xa4, 0xbe,
  0xcd, 0x78, 0x39, 0xbd, 0x03, 0xd3, 0x88, 0xbe, 0xfb, 0x09, 0xf5, 0x3d,
  0xc1, 0xf3, 0x76, 0xbe, 0x2d, 0x6f, 0x25, 0xbe, 0x09, 0xc6, 0x93, 0xbe,
  0x2e, 0x25, 0x37, 0x3d, 0xb6, 0x66, 0x95, 0xbe, 0x42, 0xdc, 0x10, 0x3e,
  0x1b, 0x6a, 0x1b, 0xbb, 0x37, 0x87, 0x67, 0xbd, 0x69, 0xda, 0x74, 0x3e,
  0x7d, 0x17, 0x2b, 0xbe, 0x4f, 0x3d, 0x9b, 0xbe, 0xd5, 0xab, 0x6e, 0xbe,
  0x22, 0x8e, 0xd9, 0xbd, 0x90, 0x04, 0x86, 0xbe, 0x67, 0xee, 0x03, 0xbe,
  0x4f, 0x2a, 0x5e, 0x3e, 0xb5, 0xa1, 0x26, 0x3d, 0xe6, 0x91, 0x60, 0xbe,
  0x7a, 0xc8, 0x2f, 0xbe, 0x8d, 0xd6, 0xad, 0xbd, 0x23, 0xa4, 0x57, 0xbe,
  0x1b, 0x85, 0xa0, 0x3d, 0xa7, 0x40, 0x03, 0xbe, 0xbc, 0x8f, 0xf9, 0xbd,
  0x27, 0x31, 0xd8, 0x3d, 0xf5, 0x9b, 0x5a, 0xbe, 0xe1, 0x0d, 0x22, 0x3e,
  0x8b, 0xf1, 0x72, 0x3e, 0x5c, 0xe9, 0xf8, 0xbd, 0xf6, 0xbc, 0x13, 0x3e,
  0x58, 0xcf, 0xe1, 0xbc, 0x9d, 0x15, 0x46, 0xbb, 0x72, 0x47, 0x1c, 0xbe,
  0x0e, 0x65, 0xd6, 0x3c, 0xa7, 0xa3, 0xf9, 0xbe, 0x23, 0x32, 0x48, 0x3d,
  0x1f, 0x65, 0x81, 0xbe, 0xd0, 0xbe, 0x32, 0xbc, 0x8a, 0xf4, 0x43, 0xbd,
  0xa1, 0x40, 0x9f, 0xbd, 0x09, 0x94, 0x95, 0x3e, 0x85, 0xc8, 0x13, 0xbe,
  0xa7, 0x8f, 0xce, 0xbe, 0xd7, 0x1a, 0x95, 0x3d, 0xc8, 0xb3, 0x24, 0xbe,
  0x0e, 0x41, 0xf7, 0xbd, 0x41, 0xb2, 0xcf, 0xbe, 0x6d, 0x49, 0x22, 0x3d,
  0xf0, 0x81, 0xc9, 0x3d, 0x9f, 0x53, 0xd6, 0xbc, 0x83, 0x26, 0x2d, 0xbd,
  0x1b, 0x97, 0x02, 0xbe, 0x99, 0xcc, 0xa9, 0xbc, 0x44, 0x87, 0x37, 0xbd,
  0x5e, 0xea, 0xe4, 0xbd, 0xd2, 0x1a, 0x40, 0xbc, 0x9b, 0x9b, 0xab, 0x3e,
  0x7b, 0x44, 0x8f, 0xbe, 0xce, 0x0a, 0x20, 0x3b, 0x77, 0x6e, 0x9e, 0x3e,
  0xa4, 0x29, 0xcf, 0x3d, 0x85, 0xc9, 0xb0, 0x3d, 0xf6, 0xc6, 0x22, 0xbe,
  0xa7, 0x7d, 0xf6, 0xbc, 0x4a, 0xae, 0x6f, 0xbc, 0x7c, 0x52, 0x03, 0xbe,
  0x53, 0x00, 0xd5, 0xbe, 0x09, 0x94, 0x26, 0x3d, 0x2f, 0x68, 0x10, 0xbe,
  0x5d, 0xe0, 0xfa, 0xbc, 0x96, 0x12, 0xc3, 0xbd, 0xeb, 0xf0, 0xa7, 0x3d,
  0xee, 0x56, 0x82, 0x3e, 0xc4, 0xf5, 0xde, 0xbd, 0x34, 0x31, 0x83, 0xbe,
  0x1a, 0xe8, 0x1c, 0xbe, 0x56, 0x94, 0x90, 0xbc, 0x8a, 0xbd, 0x0b, 0x3f,
  0x22, 0xa4, 0x7e, 0xbe, 0xea, 0x4f, 0x81, 0xbd, 0x9d, 0x5b, 0x32, 0xbe,
  0x77, 0xff, 0x0e, 0xbe, 0x05, 0x59, 0x93, 0xbe, 0x12, 0xa6, 0x19, 0x3d,
  0x64, 0x4d, 0xb5, 0xbd, 0x08, 0x71, 0x10, 0xbe, 0x1e, 0x45, 0x2e, 0xbe,
  0x68, 0xd3, 0xe8, 0x3d, 0x01, 0xb4, 0xcf, 0x3d, 0xff, 0x33, 0x86, 0xbe,
  0xb6, 0x04, 0x92, 0xbd, 0xa0, 0x15, 0x3c, 0x3d, 0x89, 0xa8, 0xad, 0x3d,
  0xab, 0x3e, 0x01, 0x3e, 0xb7, 0xd1, 0x46, 0xbd, 0x1a, 0x10, 0x76, 0xbb,
  0x2c, 0x12, 0xfb, 0x3d, 0xcf, 0x31, 0xd8, 0xbd, 0x30, 0x2f, 0xac, 0xbe,
  0x9e, 0x79, 0x4e, 0xbd, 0x0d, 0xad, 0x74, 0x3e, 0x39, 0x6e, 0xe6, 0xbc,
  0x0d, 0xf8, 0x04, 0xbe, 0xe9, 0xbb, 0xb4, 0x3c, 0x76, 0xbe, 0x88, 0x3e,
  0xc3, 0x14, 0x1b, 0x3d, 0x0f, 0x3d, 0x53, 0xbd, 0xf4, 0x01, 0xf5, 0xbd,
  0x2d, 0x1f, 0x08, 0xbe, 0x35, 0xa1, 0xca, 0x3c, 0x5c, 0x8a, 0x04, 0xbe,
  0xda, 0x13, 0xdb, 0xbd, 0x8b, 0x77, 0x4b, 0x3d, 0x2b, 0x09, 0xc6, 0x3d,
  0x33, 0x57, 0x81, 0xbe, 0x3b, 0x66, 0x51, 0x3e, 0x5d, 0x07, 0x25, 0x3d,
  0x6d, 0x76, 0xe1, 0xbd, 0x9d, 0xc1, 0x19, 0x3e, 0x49, 0x18, 0x52, 0xbe,
  0x07, 0xe9, 0x94, 0x3e, 0xd1, 0xbd, 0x0d, 0x3d, 0x48, 0x58, 0x60, 0xbd,
  0x60, 0x14, 0x1c, 0x3d, 0x2b, 0x33, 0xac, 0x3d, 0x08, 0xd1, 0xa8, 0x3d,
  0xaa, 0x4b, 0x20, 0xbe, 0xba, 0x32, 0x6e, 0xbd, 0x2d, 0xe7, 0x85, 0xbd,
  0xad, 0xbf, 0x76, 0x3d, 0xd3, 0x4e, 0xa1, 0x3c, 0x36, 0x47, 0xde, 0x3d,
  0xdd, 0xe3, 0x1c, 0x3d, 0x59, 0x21, 0x4e, 0xbe, 0xf6, 0xf2, 0x23, 0x3e,
  0x71, 0xdc, 0x10, 0x3e, 0xe4, 0x75, 0x1f, 0x3d, 0xa3, 0xd8, 0x0e, 0x3e,
  0x64, 0x90, 0xef, 0x3d, 0x57, 0x67, 0xaf, 0xbb, 0xa4, 0x39, 0xdd, 0xbd,
  0x61, 0x5e, 0x76, 0x3c, 0x73, 0x82, 0xb5, 0xbe, 0xe9, 0x4d, 0xa3, 0xbd,
  0xe4, 0x9d, 0x22, 0xbd, 0x75, 0xf5, 0xc9, 0x3c, 0xa8, 0x0a, 0x6e, 0xbd,
  0x42, 0xe4, 0x00, 0x3d, 0xce, 0x61, 0xc1, 0xbb, 0xcd, 0x4b, 0x0d, 0xbe,
  0xe8, 0x3d, 0x24, 0xbe, 0x25, 0x46, 0x31, 0xbe, 0x45, 0x41, 0x55, 0x3d,
  0x80, 0x58, 0xce, 0x3d, 0x42, 0x02, 0x44, 0xbe, 0x55, 0x22, 0xa3, 0x3d,
  0x63, 0x2c, 0x11, 0x3d, 0x24, 0x69, 0xce, 0x3d, 0x0e, 0x43, 0x75, 0xbe,
  0x53, 0x16, 0x82, 0x3d, 0x3c, 0xa4, 0xe5, 0x3d, 0xf1, 0xc9, 0x51, 0xbe,
  0x84, 0xa4, 0x39, 0xbe, 0x7a, 0x19, 0x9b, 0xbd, 0xe7, 0x1b, 0x80, 0x3e,
  0x19, 0xf9, 0x9d, 0xbc, 0xf1, 0x95, 0x38, 0xbe, 0x70, 0x53, 0xbf, 0x3d,
  0xcd, 0x4a, 0x40, 0x3d, 0xf1, 0x39, 0x86, 0xbd, 0x1a, 0x4f, 0xdf, 0xbd,
  0x9c, 0x4e, 0x13, 0xbc, 0xdb, 0x0e, 0x0b, 0xbe, 0xc7, 0xf1, 0x69, 0xbd,
  0x67, 0xfb, 0x9d, 0xbd, 0x63, 0x4c, 0x08, 0xbe, 0x0e, 0x9b, 0x03, 0xbe,
  0x5c, 0x10, 0x97, 0xbd, 0x21, 0xf0, 0x2b, 0xbe, 0x19, 0x36, 0x8e, 0xbd,
  0x33, 0x28, 0x8d, 0xbd, 0xeb, 0xc5, 0xf7, 0xbd, 0x56, 0x58, 0x9a, 0xbe,
  0xb9, 0xe9, 0x8b, 0x3d, 0x12, 0x67, 0x7e, 0x3e, 0xe3, 0x60, 0x37, 0xba,
  0x83, 0xf5, 0x36, 0x3e, 0xf1, 0xf6, 0x7b, 0x3e, 0xa8, 0x2f, 0xff, 0xbd,
  0xbc, 0x7a, 0x4e, 0x3e, 0xf0, 0x99, 0x38, 0xbe, 0x9b, 0x88, 0x90, 0x3d,
  0x37, 0xed, 0xef, 0xbb, 0xd1, 0xf1, 0x8c, 0xbe, 0xc0, 0x6c, 0xb3, 0xbd,
  0x1b, 0x01, 0x92, 0xbd, 0x8e, 0xda, 0x2e, 0x3e, 0xe7, 0x07, 0x18, 0x3e,
  0x15, 0x3f, 0x20, 0xbe, 0x09, 0x65, 0xc4, 0x3c, 0x39, 0x7b, 0x40, 0x3e,
  0xe2, 0xb5, 0x60, 0xbc, 0x9d, 0x00, 0x66, 0xbd, 0x29, 0x26, 0x7f, 0xbe,
  0xe9, 0x59, 0xd0, 0xbd, 0x6e, 0x40, 0x03, 0x3e, 0x4c, 0xfa, 0xaf, 0xbe,
  0xff, 0xe8, 0xa7, 0x3b, 0x71, 0x69, 0xc8, 0xbd, 0xbb, 0x5d, 0x92, 0xbc,
  0x91, 0x7b, 0x9a, 0xbd, 0x79, 0xb7, 0xd7, 0xbc, 0x63, 0x08, 0x59, 0x3e,
  0x92, 0x7a, 0x94, 0x3e, 0x88, 0xf3, 0x4a, 0xbd, 0x71, 0xf2, 0xfb, 0xbd,
  0xbb, 0xe7, 0xaf, 0x3d, 0x51, 0x6c, 0x44, 0x3e, 0xda, 0x3a, 0xb4, 0xbd,
  0x7c, 0x1e, 0x66, 0xbd, 0x51, 0x61, 0xbf, 0x3e, 0xcb, 0x7b, 0xbc, 0x3d,
  0x67, 0xc1, 0xb7, 0xbe, 0xbf, 0x84, 0xc6, 0x3e, 0xb7, 0x9e, 0x39, 0xbd,
  0x29, 0x14, 0x18, 0x3e, 0x61, 0x96, 0x8f, 0xbe, 0xe5, 0x6d, 0xde, 0x3d,
  0xbf, 0x2e, 0x21, 0x3c, 0x28, 0x00, 0xca, 0x3e, 0xfa, 0x8c, 0xed, 0xbc,
  0xf0, 0x34, 0x14, 0xbf, 0x67, 0xa6, 0x92, 0xbe, 0xac, 0xbb, 0x54, 0x3c,
  0x56, 0xf9, 0x27, 0xbd, 0xf4, 0xc2, 0x13, 0xbe, 0xd5, 0x41, 0xc3, 0x3e,
  0xd7, 0x4c, 0x7d, 0x3e, 0xdf, 0xf0, 0x2a, 0x3d, 0xa0, 0x21, 0xb8, 0x3e,
  0x50, 0xd2, 0x96, 0x3e, 0x17, 0x29, 0x1d, 0x3e, 0x5a, 0xfe, 0x0b, 0x3c,
  0xcf, 0xda, 0x5d, 0xbd, 0xef, 0xf2, 0xa3, 0x3d, 0xff, 0x44, 0x9b, 0x3e,
  0xcd, 0x15, 0xc6, 0xbd, 0x8a, 0x8c, 0x0d, 0xbf, 0x23, 0xe8, 0x25, 0xbe,
  0x29, 0x00, 0x47, 0x3d, 0x03, 0x41, 0xa2, 0x3e, 0x66, 0x82, 0xa4, 0xbe,
  0x5c, 0x13, 0x87, 0x3e, 0x3b, 0x79, 0x1a, 0x3e, 0x96, 0xab, 0xe6, 0x3c,
  0x0b, 0xdd, 0x9d, 0x3e, 0xcd, 0x5e, 0xca, 0x3d, 0xeb, 0x45, 0x84, 0x3e,
  0x47, 0x61, 0x8b, 0xbd, 0x86, 0x7a, 0xd9, 0x3d, 0xb5, 0xe6, 0x29, 0x3e,
  0x0c, 0xb3, 0x94, 0x3e, 0xcc, 0xea, 0x14, 0xbe, 0x1b, 0xe3, 0x3f, 0x3d,
  0x94, 0x20, 0x87, 0x3e, 0xac, 0xa3, 0x93, 0x3c, 0x0f, 0xce, 0xfa, 0x3d,
  0xb1, 0x67, 0x39, 0xbe, 0x75, 0x3a, 0xf4, 0x3e, 0xae, 0xb0, 0xc0, 0xbc,
  0xf1, 0x66, 0xe3, 0xbb, 0x92, 0x88, 0xe1, 0x3e, 0xd2, 0x9f, 0xaf, 0x3e,
  0xa9, 0xe4, 0xa4, 0x3b, 0x91, 0xa4, 0x2a, 0xbe, 0x3d, 0x1c, 0xd8, 0x3d,
  0x66, 0xef, 0x29, 0xbd, 0x43, 0x1e, 0x5c, 0xbd, 0xa3, 0x5a, 0x4a, 0x3d,
  0x14, 0x94, 0x21, 0xbd, 0x46, 0xd6, 0x60, 0x3e, 0x10, 0xb0, 0x00, 0x3e,
  0x43, 0xac, 0xa3, 0x3e, 0xc9, 0xf0, 0x1a, 0xbe, 0x20, 0x39, 0x16, 0x3f,
  0x4a, 0x52, 0xd7, 0xbe, 0x65, 0x38, 0x6e, 0xbd, 0xe4, 0x06, 0xf4, 0x3d,
  0xb2, 0x5d, 0x31, 0x3e, 0x4f, 0xb3, 0x14, 0xbf, 0x35, 0x0b, 0xc9, 0xbd,
  0xfb, 0x4f, 0x1a, 0xbe, 0x22, 0xed, 0x1f, 0xbf, 0xb5, 0x86, 0x2c, 0xbf,
  0x01, 0x08, 0xb6, 0xbe, 0x2f, 0xcd, 0x84, 0x3e, 0x34, 0x72, 0xb4, 0xbe,
  0x50, 0x90, 0xa8, 0xbe, 0x8d, 0xc3, 0xe2, 0x3e, 0x49, 0x6b, 0x20, 0x3e,
  0x2f, 0x03, 0xc3, 0xbd, 0xd3, 0x3e, 0x4a, 0xbd, 0x00, 0xb0, 0x05, 0x3c,
  0xdd, 0x0d, 0x19, 0x3d, 0xe8, 0x92, 0xed, 0x3d, 0xae, 0x35, 0x23, 0xbe,
  0xc1, 0x61, 0x28, 0xbe, 0xcf, 0xe9, 0x30, 0xbe, 0x7e, 0x18, 0x66, 0xbe,
  0x45, 0x12, 0xb0, 0xbe, 0x13, 0xaf, 0xd2, 0xbe, 0xe3, 0x62, 0xdf, 0x3e,
  0xeb, 0x2c, 0x0f, 0xbb, 0x80, 0x32, 0xa4, 0xbe, 0x38, 0xff, 0x27, 0xbe,
  0x66, 0xfd, 0xff, 0xff, 0x10, 0x00, 0x00, 0x00, 0x07, 0x00, 0x00, 0x00,
  0x14, 0x00, 0x00, 0x00, 0x2c, 0x00, 0x00, 0x00, 0x02, 0x00, 0x00, 0x00,
  0x10, 0x00, 0x00, 0x00, 0x70, 0x00, 0x00, 0x00, 0x17, 0x00, 0x00, 0x00,
  0x73, 0x65, 0x71, 0x75, 0x65, 0x6e, 0x74, 0x69, 0x61, 0x6c, 0x2f, 0x64,
  0x65, 0x6e, 0x73, 0x65, 0x2f, 0x4d, 0x61, 0x74, 0x4d, 0x75, 0x6c, 0x00,
  0xd0, 0xfc, 0xff, 0xff, 0xda, 0xfd, 0xff, 0xff, 0x04, 0x00, 0x00, 0x00,
  0x08, 0x00, 0x00, 0x00, 0xff, 0xff, 0xff, 0xff, 0x70, 0x00, 0x00, 0x00,
  0x00, 0x00, 0x0e, 0x00, 0x18, 0x00, 0x08, 0x00, 0x07, 0x00, 0x0c, 0x00,
  0x10, 0x00, 0x14, 0x00, 0x0e, 0x00, 0x00, 0x00, 0x00, 0x00, 0x00, 0x02,
  0x10, 0x00, 0x00, 0x00, 0x06, 0x00, 0x00, 0x00, 0x10, 0x00, 0x00, 0x00,
  0x2c, 0x00, 0x00, 0x00, 0x01, 0x00, 0x00, 0x00, 0x02, 0x00, 0x00, 0x00,
  0x18, 0x00, 0x00, 0x00, 0x73, 0x65, 0x71, 0x75, 0x65, 0x6e, 0x74, 0x69,
  0x61, 0x6c, 0x2f, 0x66, 0x6c, 0x61, 0x74, 0x74, 0x65, 0x6e, 0x2f, 0x43,
  0x6f, 0x6e, 0x73, 0x74, 0x00, 0x00, 0x00, 0x00, 0x38, 0xfd, 0xff, 0xff,
  0x42, 0xfe, 0xff, 0xff, 0x04, 0x00, 0x00, 0x00, 0x0c, 0x00, 0x00, 0x00,
  0xaa, 0xcc, 0x3c, 0xbf, 0xcc, 0x90, 0xa0, 0xbf, 0x6d, 0x79, 0xad, 0x3f,
  0x26, 0xfe, 0xff, 0xff, 0x10, 0x00, 0x00, 0x00, 0x05, 0x00, 0x00, 0x00,
  0x10, 0x00, 0x00, 0x00, 0x44, 0x00, 0x00, 0x00, 0x01, 0x00, 0x00, 0x00,
  0x03, 0x00, 0x00, 0x00, 0x32, 0x00, 0x00, 0x00, 0x73, 0x65, 0x71, 0x75,
  0x65, 0x6e, 0x74, 0x69, 0x61, 0x6c, 0x2f, 0x64, 0x65, 0x6e, 0x73, 0x65,
  0x5f, 0x31, 0x2f, 0x42, 0x69, 0x61, 0x73, 0x41, 0x64, 0x64, 0x2f, 0x52,
  0x65, 0x61, 0x64, 0x56, 0x61, 0x72, 0x69, 0x61, 0x62, 0x6c, 0x65, 0x4f,
  0x70, 0x2f, 0x72, 0x65, 0x73, 0x6f, 0x75, 0x72, 0x63, 0x65, 0x00, 0x00,
  0xa8, 0xfd, 0xff, 0xff, 0xb2, 0xfe, 0xff, 0xff, 0x04, 0x00, 0x00, 0x00,
  0x40, 0x00, 0x00, 0x00, 0xf9, 0x5b, 0xb4, 0x3f, 0xe2, 0xe0, 0x18, 0xbe,
  0xd5, 0x0a, 0x9e, 0xbf, 0xfd, 0x26, 0x86, 0x3f, 0xc6, 0x95, 0x25, 0x3e,
  0xd0, 0x3b, 0x1a, 0x40, 0xdb, 0x62, 0x53, 0xbf, 0x16, 0xed, 0x63, 0x3e,
  0x79, 0xa3, 0x34, 0xbd, 0x37, 0x71, 0x6e, 0x3f, 0x8a, 0x67, 0x3d, 0x3e,
  0x88, 0xc8, 0x3e, 0x3f, 0x2e, 0x71, 0x81, 0x3f, 0x4d, 0x4c, 0x21, 0xbe,
  0xc8, 0x44, 0xc0, 0xbe, 0x39, 0x23, 0x0a, 0x40, 0xca, 0xfe, 0xff, 0xff,
  0x10, 0x00, 0x00, 0x00, 0x04, 0x00, 0x00, 0x00, 0x10, 0x00, 0x00, 0x00,
  0x44, 0x00, 0x00, 0x00, 0x01, 0x00, 0x00, 0x00, 0x10, 0x00, 0x00, 0x00,
  0x30, 0x00, 0x00, 0x00, 0x73, 0x65, 0x71, 0x75, 0x65, 0x6e, 0x74, 0x69,
  0x61, 0x6c, 0x2f, 0x64, 0x65, 0x6e, 0x73, 0x65, 0x2f, 0x42, 0x69, 0x61,
  0x73, 0x41, 0x64, 0x64, 0x2f, 0x52, 0x65, 0x61, 0x64, 0x56, 0x61, 0x72,
  0x69, 0x61, 0x62, 0x6c, 0x65, 0x4f, 0x70, 0x2f, 0x72, 0x65, 0x73, 0x6f,
  0x75, 0x72, 0x63, 0x65, 0x00, 0x00, 0x00, 0x00, 0x4c, 0xfe, 0xff, 0xff,
  0x56, 0xff, 0xff, 0xff, 0x04, 0x00, 0x00, 0x00, 0x40, 0x00, 0x00, 0x00,
  0xbe, 0x74, 0xa7, 0x3e, 0x09, 0xf1, 0xb4, 0xbf, 0x76, 0xda, 0xd7, 0xbc,
  0xe9, 0x31, 0x0d, 0xbf, 0x43, 0x74, 0xf3, 0x3f, 0xbd, 0x82, 0xea, 0x3f,
  0x3f, 0x30, 0x4b, 0xbf, 0xc1, 0x0c, 0x15, 0xbf, 0x89, 0xcf, 0xe2, 0xbb,
  0xdf, 0x93, 0xa4, 0xbf, 0xfe, 0x53, 0x3d, 0xbf, 0x2a, 0x77, 0x90, 0xbe,
  0xb0, 0xbb, 0x40, 0x3e, 0x6f, 0x05, 0xf4, 0x3e, 0xff, 0x05, 0xf6, 0xbf,
  0x37, 0x19, 0xa8, 0xbf, 0x6e, 0xff, 0xff, 0xff, 0x10, 0x00, 0x00, 0x00,
  0x03, 0x00, 0x00, 0x00, 0x10, 0x00, 0x00, 0x00, 0x48, 0x00, 0x00, 0x00,
  0x01, 0x00, 0x00, 0x00, 0x10, 0x00, 0x00, 0x00, 0x33, 0x00, 0x00, 0x00,
  0x73, 0x65, 0x71, 0x75, 0x65, 0x6e, 0x74, 0x69, 0x61, 0x6c, 0x2f, 0x63,
  0x6f, 0x6e, 0x76, 0x32, 0x64, 0x5f, 0x31, 0x2f, 0x42, 0x69, 0x61, 0x73,
  0x41, 0x64, 0x64, 0x2f, 0x52, 0x65, 0x61, 0x64, 0x56, 0x61, 0x72, 0x69,
  0x61, 0x62, 0x6c, 0x65, 0x4f, 0x70, 0x2f, 0x72, 0x65, 0x73, 0x6f, 0x75,
  0x72, 0x63, 0x65, 0x00, 0x04, 0x00, 0x06, 0x00, 0x04, 0x00, 0x00, 0x00,
  0x00, 0x00, 0x06, 0x00, 0x08, 0x00, 0x04, 0x00, 0x06, 0x00, 0x00, 0x00,
  0x04, 0x00, 0x00, 0x00, 0x20, 0x00, 0x00, 0x00, 0xeb, 0xd1, 0xd9, 0xbf,
  0x58, 0x4b, 0xc3, 0xbf, 0x93, 0x5e, 0x26, 0xbf, 0xcc, 0x46, 0x58, 0x3f,
  0xc2, 0xc3, 0xad, 0xbe, 0xef, 0x8d, 0x57, 0x3e, 0xd3, 0x3c, 0x1b, 0xbc,
  0xaa, 0xc5, 0xbc, 0xbf, 0x00, 0x00, 0x0e, 0x00, 0x14, 0x00, 0x04, 0x00,
  0x00, 0x00, 0x08, 0x00, 0x0c, 0x00, 0x10, 0x00, 0x0e, 0x00, 0x00, 0x00,
  0x10, 0x00, 0x00, 0x00, 0x02, 0x00, 0x00, 0x00, 0x10, 0x00, 0x00, 0x00,
  0x44, 0x00, 0x00, 0x00, 0x01, 0x00, 0x00, 0x00, 0x08, 0x00, 0x00, 0x00,
  0x31, 0x00, 0x00, 0x00, 0x73, 0x65, 0x71, 0x75, 0x65, 0x6e, 0x74, 0x69,
  0x61, 0x6c, 0x2f, 0x63, 0x6f, 0x6e, 0x76, 0x32, 0x64, 0x2f, 0x42, 0x69,
  0x61, 0x73, 0x41, 0x64, 0x64, 0x2f, 0x52, 0x65, 0x61, 0x64, 0x56, 0x61,
  0x72, 0x69, 0x61, 0x62, 0x6c, 0x65, 0x4f, 0x70, 0x2f, 0x72, 0x65, 0x73,
  0x6f, 0x75, 0x72, 0x63, 0x65, 0x00, 0x00, 0x00, 0x90, 0xff, 0xff, 0xff,
  0x14, 0x00, 0x18, 0x00, 0x04, 0x00, 0x00, 0x00, 0x08, 0x00, 0x0c, 0x00,
  0x10, 0x00, 0x00, 0x00, 0x00, 0x00, 0x14, 0x00, 0x14, 0x00, 0x00, 0x00,
  0x14, 0x00, 0x00, 0x00, 0x01, 0x00, 0x00, 0x00, 0x20, 0x00, 0x00, 0x00,
  0x44, 0x00, 0x00, 0x00, 0x2c, 0x00, 0x00, 0x00, 0x04, 0x00, 0x00, 0x00,
  0x01, 0x00, 0x00, 0x00, 0x40, 0x00, 0x00, 0x00, 0x03, 0x00, 0x00, 0x00,
  0x01, 0x00, 0x00, 0x00, 0x0c, 0x00, 0x00, 0x00, 0x63, 0x6f, 0x6e, 0x76,
  0x32, 0x64, 0x5f, 0x69, 0x6e, 0x70, 0x75, 0x74, 0x00, 0x00, 0x00, 0x00,
  0x04, 0x00, 0x00, 0x00, 0xff, 0xff, 0xff, 0xff, 0x40, 0x00, 0x00, 0x00,
  0x03, 0x00, 0x00, 0x00, 0x01, 0x00, 0x00, 0x00, 0xfc, 0xff, 0xff, 0xff,
  0x04, 0x00, 0x04, 0x00, 0x04, 0x00, 0x00, 0x00
};
unsigned int model_tflite_len = 13052;